[PAD]
[UNK]
[CLS]
[SEP]
[MASK]
[unused1]
[unused2]
[unused3]
[unused4]
[unused5]
[unused6]
[unused7]
[unused8]
[unused9]
[unused10]
[unused11]
[unused12]
[unused13]
[unused14]
[unused15]
[unused16]
[unused17]
[unused18]
[unused19]
[unused20]
[unused21]
[unused22]
[unused23]
[unused24]
[unused25]
[unused26]
[unused27]
[unused28]
[unused29]
[unused30]
[unused31]
[unused32]
[unused33]
[unused34]
[unused35]
[unused36]
[unused37]
[unused38]
[unused39]
[unused40]
[unused41]
[unused42]
[unused43]
[unused44]
[unused45]
[unused46]
[unused47]
[unused48]
[unused49]
[unused50]
[unused51]
[unused52]
[unused53]
[unused54]
[unused55]
[unused56]
[unused57]
[unused58]
[unused59]
[unused60]
[unused61]
[unused62]
[unused63]
[unused64]
[unused65]
[unused66]
[unused67]
[unused68]
[unused69]
[unused70]
[unused71]
[unused72]
[unused73]
[unused74]
[unused75]
[unused76]
[unused77]
[unused78]
[unused79]
[unused80]
[unused81]
[unused82]
[unused83]
[unused84]
[unused85]
[unused86]
[unused87]
[unused88]
[unused89]
[unused90]
[unused91]
[unused92]
[unused93]
[unused94]
[unused95]
[unused96]
[unused97]
[unused98]
[unused99]
[unused100]
[unused101]
[unused102]
[unused103]
[unused104]
[unused105]
[unused106]
[unused107]
[unused108]
[unused109]
[unused110]
[unused111]
[unused112]
[unused113]
[unused114]
[unused115]
[unused116]
[unused117]
[unused118]
[unused119]
[unused120]
[unused121]
[unused122]
[unused123]
[unused124]
[unused125]
[unused126]
[unused127]
[unused128]
[unused129]
[unused130]
[unused131]
[unused132]
[unused133]
[unused134]
[unused135]
[unused136]
[unused137]
[unused138]
[unused139]
[unused140]
[unused141]
[unused142]
[unused143]
[unused144]
[unused145]
[unused146]
[unused147]
[unused148]
[unused149]
[unused150]
[unused151]
[unused152]
[unused153]
[unused154]
[unused155]
[unused156]
[unused157]
[unused158]
[unused159]
[unused160]
[unused161]
[unused162]
[unused163]
[unused164]
[unused165]
[unused166]
[unused167]
[unused168]
[unused169]
[unused170]
[unused171]
[unused172]
[unused173]
[unused174]
[unused175]
[unused176]
[unused177]
[unused178]
[unused179]
[unused180]
[unused181]
[unused182]
[unused183]
[unused184]
[unused185]
[unused186]
[unused187]
[unused188]
[unused189]
[unused190]
[unused191]
[unused192]
[unused193]
[unused194]
[unused195]
[unused196]
[unused197]
[unused198]
[unused199]
[unused200]
[unused201]
[unused202]
[unused203]
[unused204]
[unused205]
[unused206]
[unused207]
[unused208]
[unused209]
[unused210]
[unused211]
[unused212]
[unused213]
[unused214]
[unused215]
[unused216]
[unused217]
[unused218]
[unused219]
[unused220]
[unused221]
[unused222]
[unused223]
[unused224]
[unused225]
[unused226]
[unused227]
[unused228]
[unused229]
[unused230]
[unused231]
[unused232]
[unused233]
[unused234]
[unused235]
[unused236]
[unused237]
[unused238]
[unused239]
[unused240]
[unused241]
[unused242]
[unused243]
[unused244]
[unused245]
[unused246]
[unused247]
[unused248]
[unused249]
[unused250]
[unused251]
[unused252]
[unused253]
[unused254]
[unused255]
[unused256]
[unused257]
[unused258]
[unused259]
[unused260]
[unused261]
[unused262]
[unused263]
[unused264]
[unused265]
[unused266]
[unused267]
[unused268]
[unused269]
[unused270]
[unused271]
[unused272]
[unused273]
[unused274]
[unused275]
[unused276]
[unused277]
[unused278]
[unused279]
[unused280]
[unused281]
[unused282]
[unused283]
[unused284]
[unused285]
[unused286]
[unused287]
[unused288]
[unused289]
[unused290]
[unused291]
[unused292]
[unused293]
[unused294]
[unused295]
[unused296]
[unused297]
[unused298]
[unused299]
[unused300]
[unused301]
[unused302]
[unused303]
[unused304]
[unused305]
[unused306]
[unused307]
[unused308]
[unused309]
[unused310]
[unused311]
[unused312]
[unused313]
[unused314]
[unused315]
[unused316]
[unused317]
[unused318]
[unused319]
[unused320]
[unused321]
[unused322]
[unused323]
[unused324]
[unused325]
[unused326]
[unused327]
[unused328]
[unused329]
[unused330]
[unused331]
[unused332]
[unused333]
[unused334]
[unused335]
[unused336]
[unused337]
[unused338]
[unused339]
[unused340]
[unused341]
[unused342]
[unused343]
[unused344]
[unused345]
[unused346]
[unused347]
[unused348]
[unused349]
[unused350]
[unused351]
[unused352]
[unused353]
[unused354]
[unused355]
[unused356]
[unused357]
[unused358]
[unused359]
[unused360]
[unused361]
[unused362]
[unused363]
[unused364]
[unused365]
[unused366]
[unused367]
[unused368]
[unused369]
[unused370]
[unused371]
[unused372]
[unused373]
[unused374]
[unused375]
[unused376]
[unused377]
[unused378]
[unused379]
[unused380]
[unused381]
[unused382]
[unused383]
[unused384]
[unused385]
[unused386]
[unused387]
[unused388]
[unused389]
[unused390]
[unused391]
[unused392]
[unused393]
[unused394]
[unused395]
[unused396]
[unused397]
[unused398]
[unused399]
[unused400]
[unused401]
[unused402]
[unused403]
[unused404]
[unused405]
[unused406]
[unused407]
[unused408]
[unused409]
[unused410]
[unused411]
[unused412]
[unused413]
[unused414]
[unused415]
[unused416]
[unused417]
[unused418]
[unused419]
[unused420]
[unused421]
[unused422]
[unused423]
[unused424]
[unused425]
[unused426]
[unused427]
[unused428]
[unused429]
[unused430]
[unused431]
[unused432]
[unused433]
[unused434]
[unused435]
[unused436]
[unused437]
[unused438]
[unused439]
[unused440]
[unused441]
[unused442]
[unused443]
[unused444]
[unused445]
[unused446]
[unused447]
[unused448]
[unused449]
[unused450]
[unused451]
[unused452]
[unused453]
[unused454]
[unused455]
[unused456]
[unused457]
[unused458]
[unused459]
[unused460]
[unused461]
[unused462]
[unused463]
[unused464]
[unused465]
[unused466]
[unused467]
[unused468]
[unused469]
[unused470]
[unused471]
[unused472]
[unused473]
[unused474]
[unused475]
[unused476]
[unused477]
[unused478]
[unused479]
[unused480]
[unused481]
[unused482]
[unused483]
[unused484]
[unused485]
[unused486]
[unused487]
[unused488]
[unused489]
[unused490]
[unused491]
[unused492]
[unused493]
[unused494]
[unused495]
[unused496]
[unused497]
[unused498]
[unused499]
[unused500]
a
##sz
##el
k
##en
##et
m
##er
##gy
##an
t
v
##at
##és
##al
h
f
##or
##ek
##ol
sz
e
##ak
az
n
##ar
##on
##ál
##in
##ár
##es
##án
l
##eg
##ás
b
##is
##tt
##em
és
##ik
##ok
1
##ez
##én
s
el
##os
p
##ban
##ül
r
c
##ben
##ég
##ett
##át
##ér
j
kö
##ut
##bb
d
egy
##ít
##oz
##ad
##ott
##ág
##ét
##él
meg
##il
##ap
##om
##szt
##ék
(
##ai
is
##ed
##agy
##us
##as
i
##ul
##it
##ép
##ész
##ák
al
##ely
##ség
##aj
cs
köz
19
##int
##cs
##ja
##ig
fel
2
##ag
##am
##ól
##olt
g
ki
##év
##ent
##re
##ot
##ány
##áll
##ra
##ev
##ör
##ta
##og
##ogy
##áz
am
##ep
##ám
##az
nem
szer
##ény
volt
##ől
ez
##un
##ci
##ált
##ny
hogy
##ab
##od
##ur
##te
##ság
##egy
##nak
##art
##ni
##end
##nek
##ában
20
##iz
##ba
##ell
gy
##ött
##szer
##id
##ön
ny
##ej
##ov
##öl
##ind
ak
ú
##ont
##le
év
##ud
##um
ut
##ír
##ért
##hat
áll
z
##ber
##ső
de
ter
##ető
##oly
##ös
##ch
##ály
le
##ia
er
##áb
##ében
##ült
##orsz
##st
##len
##ir
##ord
jel
##est
nagy
leg
##ület
##ország
elő
##ök
##att
##iv
##par
##áv
##op
ker
tel
szám
##uk
##alm
##ve
##ill
##ran
##asz
##öz
val
##ók
##ént
an
##agyar
hely
be
##kor
tö
##áros
##öv
18
##eti
##kez
##áj
##ára
tart
.
magyar
##ei
##ása
##ők
id
vég
hat
##:0
##ód
em
né
##ának
első
0
rend
##ette
##0-
már
##av
##ser
más
kor
##ro
##ug
##ított
##eket
több
–
##ox
##ri
##ín
##ult
##ős
##ert
##hoz
él
tör
mű
##ck
##ív
##ének
mind
200
##ing
rész
ad
##ük
##be
amely
nev
fő
##ajd
##out
##éd
##eszt
kap
mag
##ím
##ése
##im
vagy
##ang
##olg
ér
##put
új
tan
##ubb
##ony
##zet
##mw
között
két
3
##output
##parser
##stubb
##stubbox
##ád
mi
##elt
##okat
sor
##ább
##mar
w
után
mint
##),
##össz
##ikus
##elm
##alál
##ző
##úl
át
##epül
##).
##ort
kül
vált
lak
köv
##osz
##ció
##ére
cím
##eny
##ély
mely
##unk
##ható
alap
##kel
##vez
##het
jelent
##ilág
„
ép
##je
kör
##ítás
##ozott
##and
201
össz
##ával
##ász
st
kez
##ond
csak
##ból
ellen
##aszt
ol
##árt
vis
majd
azon
kép
##ebb
##ozat
##nál
##ház
##ót
for
##kal
##ikai
##gin
tab
##1-
##oszt
##iszt
##öld
##elő
mar
##eh
##order
##zs
ar
##ic
##va
##ást
##eng
table
##}.
##epülés
##margin
##border
##ers
ját
##íz
pr
még
vez
##ió
##obb
tud
aut
fog
##nok
##hető
##ob
lett
##mény
##ló
van
foly
##isz
kis
##omány
##árs
##ből
199
város
##met
##ember
##5-
világ
település
kir
ped
##ített
4
ír
##ként
ü
##köz
##6-
szerint
##ták
##tak
##által
10
ah
##ével
kezd
##hez
alk
##esen
u
ő
##und
##8-
pedig
es
ir
##pl
##7-
##na
##utat
szem
##2-
ok
vissz
##ést
í
##ábor
##tén
##tat
nép
##ális
##ják
bel
##éz
##ked
##ázad
##őbb
har
##eb
##etlen
király
##őz
kés
##öt
fran
##iai
##mány
ism
ered
##esz
(1
##esség
csap
terület
biz
egyik
##alom
kat
##4-
##tek
által
##árm
így
##3-
vál
ig
##kol
szerep
##ém
##ellett
lakos
##col
##9-
##etkez
##leg
##abb
szín
##uszt
##ások
##ef
külön
##pad
##aság
##ték
##ró
##őd
##jel
##xt
##ozó
##ilm
##cia
##ip
##all
##elv
később
talál
azonban
valam
##ját
fej
ért
fi
kész
##óg
5
##től
nap
or
##ter
##ába
##alk
##ján
##öd
##ossz
hasz
század
tag
##áp
munk
##áció
##ati
való
##any
##enn
##almaz
in
##pont
##:1
##alád
ill
csapat
##hely
##ding
ind
alak
##gro
##00
##back
##text
##enek
auto
##ground
című
0.
17
idő
td
##color
##px
##padding
##background
##tól
évek
aki
lét
##ün
198
ó
##ási
német
##árom
sok
eg
##ogat
ahol
egyes
másod
##let
##ivel
sp
ország
had
történ
##észt
minden
##tó
##ütt
##ítés
##ani
##enc
bar
##erc
##ekkel
##fel
##éter
##vel
##th
##őr
##ikor
##erm
állam
##ról
##inak
alatt
6
##ezés
szab
##val
##ovább
család
azt
szak
##óp
megy
##ezett
tovább
-
##ező
##ezte
ma
##old
br
##oh
th
ész
##áború
term
kon
##osan
##ája
##gat
élet
##ajnok
197
francia
ami
##fi
sik
##önt
telj
von
##ög
dél
##éld
ha
került
mér
##rend
##orm
együtt
##ását
##eli
par
következ
##alak
lát
##ából
int
lehet
miatt
##uár
15
ember
három
##nök
kar
##ost
ugy
##ári
##usz
ch
##ait
##ölt
##étel
"
nyelv
##ata
sem
194
egész
##ant
film
játék
en
##azd
##atal
ugyan
##ekt
valamint
##mű
jó
##út
##ub
##elem
##szerű
##etés
##up
bud
föld
##emény
ezt
##zett
második
eml
##elet
16
##sal
##só
##etve
oly
tem
fal
észak
ur
szint
bir
péld
##ván
község
##köd
haj
##oll
##sor
196
tám
oszt
##ozz
##után
##atok
##ről
##fog
##szak
##csol
##plom
itt
##etem
##tel
##20
##nyv
##eni
gyak
vers
##nő
név
ház
##gg
7
##ették
di
##of
##ször
ap
##vény
##jt
siker
##ította
##inek
##otta
ang
##ac
nemzet
##észet
##ács
195
kom
##ist
mellett
társ
zs
##uróp
##ológ
olyan
##ói
8
##kép
##vány
amikor
szent
##ium
jelen
##országban
##etett
illetve
##alt
##ay
##adt
##lt
fü
##.)
##atl
ezek
##ához
rendszer
hang
##ító
ek
használ
mód
##fej
saj
##ki
##ard
##ési
akkor
##adás
seg
során
kereszt
##ete
##–1
##szín
műv
úgy
amer
##oport
ford
##af
nyug
##omb
##ass
közép
##nagy
igaz
##dal
előtt
any
te
##óz
rég
kr
has
megjel
##ib
##óm
lev
hossz
##oth
eset
##ón
zen
bet
##ily
##von
##ius
##szám
##ne
megt
kapcsol
min
elm
##ául
##ós
##ozás
##zel
játsz
jár
##ontos
##ong
191
##séges
száma
##ották
egyetem
##sége
##cent
14
dolg
##apest
pol
mivel
szöv
teljes
út
9
##ór
##izs
fogl
##eség
193
kell
rom
##íg
ön
ist
##fél
##kül
##zés
irány
##ános
##��
##ign
##ens
##ista
##őt
voltak
vas
körül
négy
visz
kl
szolg
##jár
##ója
13
##ec
##emez
##enger
12
##úz
választ
##ították
##ején
jan
jell
##ern
pály
##ess
moz
##iget
határ
ekkor
##1.
##ika
vissza
ár
##ikk
##ánd
európ
##nyi
##ainak
##űn
##véd
szület
##okban
##ezték
része
pár
##űr
verseny
##mer
##íj
működ
##lat
magyarország
kit
##ram
kiv
##lás
található
néh
vár
##ozik
jog
ezért
részt
(19
dönt
##város
##tok
##nev
##sol
##ződ
##éb
##ilyen
##zi
##ver
érd
amerikai
közt
ii
##elmi
##rans
nő
##haj
ne
cél
dal
víz
##ábbi
létre
##ion
##abd
pro
##úg
budapest
##ept
test
hal
saját
öt
hason
##ka
fer
##ánt
##sága
köt
magas
##ését
##föld
##ívül
##ések
tiszt
192
form
##ocs
un
##erceg
hiv
##cle
nov
##őket
##.3
tanul
the
##lov
különb
##ker
gazd
alb
vezető
##top
##essz
növ
össze
##vis
##ármaz
költ
##ow
#
közel
##201
##mus
hagy
megyében
##li
halál
##mér
könyv
##séget
akik
##ah
##ton
lép
##7.
ennek
##atk
tér
##0;
##orv
##8;
##wid
katon
##trans
templom
szó
##clear
##center
először
ott
##align
##solid
##both
##ajnokság
##parent
0.6
0.4
függ
##qu
##width
0;
##:#
##:0;
##transparent
##:0.3
annak
##ors
megsz
##ítette
ör
véd
bár
szervez
##eit
szabad
y
felt
ed
háború
han
számos
ezen
tagja
erd
közül
fél
##jai
számára
kapott
and
például
##8.
faj
követő
január
##2.
##ori
személy
sorozat
##jában
##ilis
csoport
##iség
##ügy
bal
iskol
##kod
##ekben
nyom
##ast
máj
angol
km
aug
##észeti
jelentős
alkot
elt
##közi
harm
hozz
pont
##úr
##eked
változ
##pus
fér
##5.
##ermek
oldal
kormány
##almi
##4.
##ására
##ester
tal
segít
származ
néven
mert
birtok
men
##6.
##áról
mik
tor
években
eredmény
##sel
néhány
##íl
##0.
##ással
##adó
part
##ezet
megh
##iskol
labd
##okkal
##kőz
##ce
##bben
##lő
népesség
##ou
##tóber
##gyel
május
sa
fr
##ex
##juk
alkalmaz
ab
##cius
róm
##urg
##erg
túl
október
tudomány
##la
##övid
bizony
ismer
##rás
raj
##műv
##éhez
tek
áp
##atot
haz
következő
körny
vol
##eptember
készült
##ich
vett
##9.
alapján
másik
míg
kil
##ford
változat
különböz
##3.
##né
szeptember
végül
##ítették
x
##nél
##ébe
##ottak
üz
rendel
ismert
##arúg
polit
##eken
(201
született
fek
gyermek
dr
##ink
ver
utol
tár
##vár
herceg
##uló
kev
##ann
##nagyobb
##usztus
##áját
pl
##lőd
táv
labdarúg
nemz
##ékeny
ment
vesz
érdek
jú
##álló
##nius
##kész
lap
##szik
ezzel
##ie
folyam
bev
tr
falu
március
dec
amit
kel
érték
nemzetközi
közös
egym
##adik
augusztus
im
##ejt
nagyobb
keres
##idék
júl
##keszt
##leszt
reg
per
##if
##mel
##ehér
album
olasz
##jed
központ
##háború
##%-
##vonal
rövid
##uc
hasonló
##incs
november
kér
június
##okon
##lát
##ulajd
egyház
##mal
##ulajdon
##anak
hivatal
óta
határos
##org
##átt
elnök
##rilis
épület
december
##iában
hír
##vas
legnagyobb
##vált
lakosainak
##ha
##almas
mell
erős
##assz
győz
##ünt
április
##rom
méter
##áló
gond
kár
szél
tekint
##ítő
##áig
orosz
##jának
kutat
emlék
július
##ebr
##sér
rendelkez
mod
##elés
##izmus
##tár
##meg
##var
##ismer
##úly
##űz
##ma
ro
hosszú
##ron
nemzeti
##esek
##odalom
##élkül
len
lehető
ham
vi
községekkel
feleség
##ozta
utolsó
##ür
tanulmány
##uz
##élet
##ine
mutat
osztály
##tos
##form
ber
kisebb
ismét
román
jut
török
vel
##ogram
11
elh
szék
lég
szintén
folytat
##etség
újra
##esebb
haszn
##sp
##atos
mond
mérkőz
##atlan
##díj
##ípus
besz
##telen
elfog
##har
tulajdon
nyil
volna
eredeti
190
csat
mill
különböző
##alkod
##aként
##izsg
##ey
jános
dar
op
adott
of
kol
mai
##őleg
csász
##tart
##ákat
##écs
hanem
##son
foglalk
##éről
nek
szerzett
fenn
##gel
fontos
##pen
képvis
##éj
lesz
##ítása
##író
##elked
követően
##tal
##elte
őket
##ób
labdarúgó
##új
febr
váll
##our
##kori
##tor
##ina
gör
anyag
##ettek
##ánc
február
ebben
gyakor
##ától
felv
tenger
##5).
##rá
##lovák
##vezető
ide
##edik
nélkül
végén
##asági
##foly
ferenc
épít
miután
uralkod
##ull
##tör
##ogatott
harc
hi
mon
##ísér
##űjt
állt
természet
##chn
történet
##pr
##rel
bor
ének
##olikus
##ancs
nevű
##ágy
##io
##itk
##bajnokság
szár
szerkeszt
kult
tölt
##ülő
párt
tervez
##érték
arra
189
gép
##olta
jellem
kívül
szól
kiad
kín
##határ
##ian
római
istván
hát
##au
sziget
##ságot
amelyek
ilyen
##eként
##apán
egyesült
fest
##ászló
megfel
megjelent
##álták
hegy
##eum
##nem
alá
világháború
felé
##faj
##ca
##ezik
bem
saint
##atták
##dig
elv
##lik
(2015).
elem
évben
fiatal
biztos
felh
száll
##raj
ügy
kifej
##ábban
hall
188
##lal
##ust
repül
##bl
marad
harmadik
kik
##sereg
##lag
támogat
##bert
##oni
szük
at
visszat
##edett
nagyon
la
legj
fut
##orvát
kellett
tev
##nia
jav
##ású
##ileg
lány
melyet
szen
században
fény
gyakran
##féle
##acs
##ier
brit
neve
színház
##ark
japán
belül
##sági
módon
kal
##ozs
##tö
maradt
##színű
##últ
szolgál
megjelen
rá
##ünk
forr
hét
megk
##énz
bék
teh
##üz
##étől
##onn
##árd
törvény
ser
amelyet
érkez
tartalmaz
magát
elér
##ásra
eredet
re
##világ
ezután
esz
további
tanács
##oc
##jabb
kialak
##róf
sh
##ics
gyors
##olja
egyetlen
##ógy
##ásban
barát
(18
##óbb
éves
##sa
jobb
ref
mad
bej
##ítja
##fal
187
##erek
ál
##osa
józs
tur
akad
legy
##ly
lov
álló
##ásával
##ségek
##ációs
hagyomány
fil
##ándor
as
##beli
met
##ökk
fehér
##ítani
##ölgy
általában
hadsereg
##leges
folyó
##anyol
melynek
##atban
józsef
gr
helyen
várm
kísér
##oci
tevékeny
##mag
##burg
felad
tiz
ős
sch
vizsg
##oztak
##olták
találk
aran
dí
megny
##za
##nap
joh
##ségi
##etek
viszont
##19
elején
##űl
186
maga
fok
neh
##két
melyek
erő
megfelelő
negy
tárgy
##lemez
európai
fegy
gól
indult
fia
görög
részben
##oszl
##gazd
felső
írt
##ségét
##ásár
##évő
élő
korábban
##óri
##rák
szerepelt
##red
man
1-
##éből
##ológiai
mot
##ral
##andó
legjobb
idején
##ment
##anyag
##jú
iz
jelenleg
##ázs
arany
##igaz
keresztül
##ókat
lemez
polg
ám
##apot
##de
ked
szez
##ide
helyi
katolikus
##eztek
##több
##enged
horvát
nincs
##gal
184
közv
##cikk
##ovj
spanyol
##ezt
egyen
##ík
régi
##áni
lel
##imp
időszak
##ille
##ini
##oss
##ry
változása
pénz
##öm
örök
dolgozott
##oknak
neki
sikerült
00
királyi
##jegy
többi
vit
##állítás
vármegy
közl
program
pal
##rendszer
mozg
fl
##ásának
gyárt
szemben
##átus
ell
zenek
telep
vannak
##úcs
népességének
alábbi
őr
##inc
éd
károly
##sorban
##erte
##asznál
darab
szovj
típus
##ff
##ője
##szó
fejleszt
épült
bemutat
##uh
területén
##nny
vette
vill
##enne
##ilag
tudományos
##ork
##iss
ant
pap
fejlőd
##akat
szav
##iszter
igen
valószínű
fiz
##üt
##szor
##csak
##ecs
korábbi
teljesen
figy
##iós
hit
##örös
##szab
küld
##átor
##ílus
##ukat
##íció
tartozó
forg
##olc
##szk
kapta
viszony
őt
szeg
üzem
##ation
lengyel
##rón
vir
akar
ep
##osztály
kett
##–19
##elték
segítség
egyre
mező
bajnok
##esi
##etet
##örgy
növény
független
egyéb
katonai
végzett
szlovák
##ársaság
##hegy
ge
jól
##őként
ellenére
kan
##ítése
bl
##vé
##rat
játszott
laj
185
car
azonos
##ung
császár
##ái
újabb
kerül
##enz
##udvar
seb
##jét
##gép
hón
közep
együttes
##álta
vél
##zal
közötti
##200
egyed
mer
##orn
dok
vad
válogatott
##ven
hív
reform
##adalom
házas
kelet
politikai
##omás
édes
cikk
1.
legtöbb
##ölcs
közé
100
##nal
kam
##nie
orv
##ézet
##lang
északi
szovjet
kéz
nevét
nyugat
hom
vasút
szerződ
megb
##álaszt
ink
techn
##ula
##mond
hozzá
##íti
keresked
férfi
new
tört
nyilván
cser
##csap
tartozott
##történ
feket
##ésére
##nyug
alakult
űr
nyit
##etben
konc
sport
szerepel
##kezd
000
##önyv
##vő
lévő
##üket
jelleg
helyett
##ötte
##lev
déli
akt
élt
szezon
közben
##adta
##mun
látható
##ulat
szabály
hon
beteg
tartozik
med
beszél
könny
kő
##illag
helyzet
kösz
##zat
mindig
lászló
föl
##ődött
részén
##ésével
##kör
##ga
##ájában
tett
hónap
millió
utóbb
##.”
színész
##ián
nyugati
port
zenekar
magyarországon
##der
mat
mérkőzés
##ítmény
##mi
környék
gen
##őben
##úzeum
ág
jellemző
##atlak
irod
fekszik
áb
stílus
##men
##szerep
cl
évvel
ev
szob
##szöv
mintegy
jelöl
tesz
lajos
##atív
##áltak
##udomány
csökk
##ottság
későbbi
csatlak
évi
##éig
##ozni
var
##újt
részét
##áci
##alap
erdély
##oztat
##vári
gyógy
##iát
##igazgat
##ock
amelynek
##pal
képviselő
25
vall
elleni
elsősorban
lakosság
gróf
##lós
##for
##ódott
##akt
parancs
súly
##rész
távol
##ává
értelm
##dolg
legf
##ona
##oy
##ítottak
##sziget
igazgat
intéz
fegyver
inkább
oper
auszt
##oznak
elekt
fin
meghatár
prób
gyűjt
##üsp
##eknek
krit
perc
megv
##ke
helyez
tartomány
##özben
páp
##ánya
fell
##ach
fed
##ülés
repülő
##se
##ítettek
##alat
##einek
##ítik
tizen
egészen
különös
##attal
megszer
##ttal
nyert
##vér
##rab
##man
##,5
társaság
##okra
##jával
köszön
##bar
##földi
##hetően
keleti
##ulás
##űnt
kih
múzeum
deb
##.,
##min
##fr
bécs
nyolc
akadém
##ódik
##eml
kény
budapesti
##zó
szövetség
hamar
##fa
mély
cég
##imn
##oj
tábor
##br
györgy
tartott
bek
##sék
##üspök
##uny
pet
##úd
közleked
felf
önálló
visszav
mester
##tan
hisz
##osság
szolgált
##land
általános
ex
szöveg
főváros
##ősebb
cent
szakasz
enged
##ekre
apja
kevés
követ
##ese
akár
##rál
##ezni
dísz
alkal
kezdett
holl
szor
királyság
##óta
##vi
vezet
##játék
##jük
##talan
népszerű
##kívül
csillag
tri
létrehoz
pál
##co
##nep
klub
##berg
##per
vörös
egyszerű
##elmet
alkalom
ég
##eje
elve
képes
azaz
püspök
ipar
történt
foglal
osztrák
##����
30
##ita
##ügyi
##etű
kérd
##cz
tömeg
vidék
azok
esemény
összes
folyamat
kin
san
##obban
##ae
##ack
tűz
##ört
##”.
##bel
sk
##ús
belső
##zék
##amer
##ékony
zsid
elég
##lak
##ráz
szerb
lat
##gr
üt
többek
fekete
szenv
zene
kiem
utaz
dob
sokkal
##elek
pi
19.
számít
cseh
birodalom
játékos
lépett
ebb
##ánál
oktat
##lott
##ezése
##blém
##szék
rang
művész
##ner
állapot
if
##film
##éssel
2.
john
viz
##hatók
rád
##utt
hid
kezdte
hí
felett
##jából
halála
változott
##ésre
segítségével
országos
##dönt
##endő
##ásos
od
##ásokat
##szint
##gyűl
barlang
vegy
orvos
tanár
##hi
–)
##ham
zár
olimp
vizsgál
puszt
##”,
udvar
let
trón
iv
mikor
sug
##úra
##lam
ellent
igény
##ler
##előtt
##íteni
megáll
péter
eszköz
bi
elmúlt
szül
sándor
##ica
gazdasági
dun
következt
##oló
jegy
európa
##ank
ö
szerkesztő
##vidék
írta
##hang
sár
szok
ideg
##jén
o
kerület
ph
komp
vele
me
2011-
ben
keret
támad
erre
##áty
esetén
##ilk
főleg
##rán
aján
##csoport
##eiben
szerepet
utal
##onz
koncert
végre
##igh
alsó
ideig
park
##magyar
pat
hol
rak
utóbbi
##one
##usa
##ettel
##..
##mai
##avar
sereg
##ügg
vér
szép
szinte
tette
területe
poz
##ásai
##ázium
##-,
##imnázium
##vei
##almat
hivatalos
jutott
díj
ün
regény
eredetileg
##ala
ünnep
##éli
com
száz
##ora
kínai
bír
##jeszt
menny
feltétel
##édia
azzal
helyet
##ezi
hatalmas
pa
##külön
idők
szoci
vezetett
##ásában
et
adat
fordítás
alkalommal
tíz
##di
##rik
##he
lény
iii
##ésének
##ájának
##jára
elnev
mont
adta
vend
addig
utc
módszer
##lan
tav
táj
gra
tény
##széd
elk
közvetlen
dem
járt
tap
elter
eltér
##ítvány
párizs
##ői
ugyanis
##enci
címmel
valószínűleg
problém
##atott
prod
felhasznál
gondol
egyszer
##alma
##elep
gu
felesége
183
##isták
##adék
virág
tehát
lehetett
##50
kór
kup
sír
olvas
összesen
##ux
##ítják
far
he
##ozták
költöz
att
szom
##ebben
vármegye
nyí
kommun
bajnokság
miniszter
##ítél
keresztény
bő
##jon
megtalál
##res
##őle
nehéz
##hy
##aki
##adalmi
##adi
##amp
előbb
##ere
kapcsolat
érint
##ozása
##hal
##ipt
##amos
##ráf
időben
mária
hab
##evíz
##kelet
2-
műsor
##sur
##onnan
##apja
##ozza
ebből
hajó
##jelent
szív
##okból
##erős
állami
pest
##nyire
vallás
##kar
##ivál
##elnök
akit
##részt
ábráz
intézet
##zetes
##űrű
##ápl
összef
otth
lem
tém
##ióban
##rec
##ométer
qu
se
bizottság
##őség
vide
szervezet
##les
##ően
újság
vet
menek
író
##lin
24
##ain
##akor
##ultak
mel
terv
##ásához
li
por
##évé
##ellem
50
jött
##ity
##eik
##zen
##acsony
egység
egymás
##vers
##enni
180
##eri
3.
egyetemi
##ológia
isten
ac
vonal
##sen
mindkét
##szolg
ezer
emberek
##mények
##ge
iskola
keletkez
készített
##uális
lakosa
továbbá
diplom
vezér
csúcs
##ya
állandó
bizonyos
hasonlóan
##edék
##ence
tagjai
alapul
szil
azért
andrás
évig
abban
##ságát
din
hő
##ítva
##me
többször
buk
eszt
vezetés
con
ahogy
##tag
##érium
televíz
női
het
##urális
ger
##irat
köztársaság
##sorozat
egykori
##ikl
holland
##kedett
##fordul
címet
##izál
szim
##jének
különösen
##jut
list
rög
##kormány
akkori
megold
nevezték
titk
hazai
mérték
központi
##ival
##aik
kötött
##ism
latin
##űv
##óként
##építés
##országi
széles
sc
energ
motor
rek
miklós
##hatott
államok
av
inter
felfed
református
hiszen
kolozs
##atra
zenei
törzs
##áns
##esk
vezette
##ura
##jába
csapatok
hen
köl
döntő
york
##fer
21
gar
bél
csökkent
##che
##okk
##aton
20.
##európ
lond
##dő
##óban
##reg
modern
inn
utas
old
##oldal
éj
##jedt
##ázis
működött
forgat
##éni
elhagy
áld
##adott
##mán
##000
##puszt
visszatért
her
elnöke
gazdag
mor
der
##jekt
##emat
rák
spe
col
állat
3-
munkás
##evő
vonatk
elkész
sv
##ley
stb
##állás
level
##ana
bra
közigazgat
veszt
prot
##eltek
##pár
inform
példány
fekvő
gimnázium
ül
##ument
##bajnok
kb
hir
##pró
mellék
##bor
látt
közelében
parancsnok
elfoglal
külső
tanult
##éri
ezeket
182
co
##észek
1990-
erdélyi
##álóz
##áris
##hetett
##ságban
##atárs
##biz
láb
##orszak
szükséges
##zők
mög
##szent
baj
negyedik
veszély
kislemez
szövet
vendég
szereplő
főiskol
##bo
18.
##essége
bele
gyakorlat
rossz
svéd
modell
gyerek
benne
felel
visszatér
##ikában
átlag
irodalom
##ara
rév
##ültek
megye
tet
végezte
uralkodó
köszönhetően
mil
##rand
##tiz
nevet
##",
zsidó
##éves
##zése
##zik
##din
jöv
sim
tápl
egyetemen
érdekében
##mód
##da
érte
##ii
##társ
##ue
will
korában
##ódó
2001-
##úak
gal
##eteg
##ente
##ésben
##maradt
szükség
befoly
emberi
##üst
##2,
szét
##esztivál
mozd
kilométer
##itás
kötel
rajz
rendkívül
##iac
##rem
alacsony
##akk
indul
##ájuk
mm
##cion
##prób
komoly
szt
esetben
##omi
40
assz
rét
repülőgép
2010-
kiz
##ins
##ésű
tisztelet
lig
##helye
bo
kezdve
budd
rag
##oha
##str
##usok
##akkor
##lap
##hály
##magas
szóló
mich
##szövetség
##ald
rock
##hajt
##ria
2006-
##ered
csup
##ath
##erő
##közel
##ves
##ith
mezőgazd
##tebb
szellem
##hetetlen
4.
ellát
gl
mus
főszerep
leír
megalap
hajt
##ino
kísérlet
##szabad
##óni
##10
23
megbíz
##üzd
kív
bíró
##oltak
##ontosabb
énekes
megs
kop
dom
szempont
##átum
##össze
ifjú
##kap
##udományi
eur
##ood
következtében
szárny
használt
sal
##úsz
befej
béke
városi
##tized
most
4-
híres
##atta
játékvezető
népessége
évad
##álás
hallgat
környezet
##szög
rendez
rep
sar
vezetője
##név
##emt
[
egymást
évtized
del
##vá
emellett
köztük
oklev
fa
##nőtt
##ore
##verseny
aktív
##lét
##olit
tanulmányait
##emlék
munka
##ice
szomszéd
2008-
181
##éve
töltött
fri
forrás
oldalán
meggy
éppen
egyedül
##szich
szócikk
mennyiség
##kan
fokozat
legal
char
szerezte
elismer
fogy
táplál
1910-
##astély
agy
du
kulturális
##ségben
száraz
##oszk
fellép
##ella
tudott
it
##ötét
22
előad
=
##már
szerkez
##sh
##nyom
10-
##edelem
kiter
##18
evang
##belül
##ari
##unyt
legfontosabb
##uss
##bajnokságon
max
javas
nyújt
2007-
megvált
pir
legyen
rokon
##."
rem
szerző
fül
ob
est
irodalmi
fordul
ost
mégis
prof
##űk
akinek
##jait
##ano
magán
##zsa
##encs
##riszt
ugyanakkor
amelyben
hord
sőt
zöld
wik
##ix
##ábl
5-
klassz
szavaz
##könyv
egyipt
##súly
lő
##ph
##etést
##rét
ellentét
kerültek
egyesület
koll
származik
##atát
adomány
magyarországi
##alék
##áért
sugár
##odott
számú
vereség
6-
visszavon
##etni
jam
ezüst
vásár
##elent
löv
speci
tam
##iméter
egyben
##port
##ris
történelmi
kölcs
rendőr
fiú
##ítve
intern
##sch
kont
hagyományos
nyelvű
főként
lényeg
##vére
##arch
hold
##mérsék
##ellen
vadász
hull
völgy
##esült
csupán
##olás
körülbelül
##szervez
##ítt
sorolja
##aival
bill
megyei
kur
##uth
kics
ko
összek
##ped
megerős
meghalt
nyílt
##nes
##itt
##ccs
mihály
lu
lehetővé
eddig
##...
helyszín
##védelmi
2000-
célja
mindössze
ausztrál
megállap
##vető
##afut
cm
##tes
##ákkal
##ré
mit
pub
rádió
fogad
matemat
révén
##ilt
sötét
##60
hamarosan
rab
##fok
ról
súlyos
##tér
##omp
##ésében
filozó
fű
bejelent
kereskedelmi
##ila
megelő
mak
mol
korai
dzs
arról
##szél
zaj
bűn
mut
érkezett
##höz
sér
15-
##víz
kelt
##olni
179
építés
részlet
##sé
természetes
elhely
kateg
alkalm
hasonl
##eznek
##ítását
felvétel
il
##akad
16.
##alista
helyre
kapit
##ti
mal
##exik
##szerző
wikip
##arak
hű
intézmény
termék
##iam
##bud
csata
2005-
frank
munkatárs
##izód
teljesítmény
##osok
bizton
rec
járm
##zás
##ennyi
##éseket
##elen
elkezd
2009-
hatására
mart
közön
vág
lass
bajnoki
##edi
utód
##álja
##jaként
##fő
##sk
idej
budapesten
##séggel
látogat
választották
korlát
2002-
megfi
##ánk
os
2004-
közepén
kocs
bur
1,
hiány
használják
##üntetés
bárm
##odik
17.
megrend
##abban
tit
áldozat
doll
jack
##ezést
társadalmi
országgyűl
tudta
##ítható
##tenger
kezdődött
küzd
##enti
##ógép
##ous
##olf
előre
arány
##part
tapaszt
sl
##);
##esszor
28
##olyg
rendező
##rit
##rajz
érdem
##30
wikipédia
stúd
##ányi
megprób
felkel
ók
ró
norm
uk
##óc
##öp
húz
##óval
##áján
##leti
epizód
##elik
##van
eljár
felnőtt
##egyetem
##ítására
##ova
##öny
##mérséklet
##alog
5.
##lám
egészben
##hatatlan
##ise
pályafut
##félék
diák
kölcsön
##története
##inkább
’
szig
##–2
1980-
##áit
dav
##ságú
kényszer
azóta
##étt
utca
1970-
bank
##keleti
emi
döntött
##ónak
testvér
nyelven
mozdony
##amb
vagyis
külföldi
átt
kilenc
##cel
pszich
##szerződ
területen
pop
##ekből
ellenőr
nyerte
178
származó
##ight
##ötő
folyamatosan
##rist
domb
esetében
akadémia
adták
tartották
##művészeti
ők
##elni
20-
ik
polgár
sikeres
gábor
##ney
vállal
legyőz
kanad
rov
##utas
nyilatk
előfordul
bronz
ór
sikert
csatlakozott
nyar
fordításán
##ota
##ze
##rop
##erv
középiskol
##etét
hib
##szócikk
##szeg
##ettől
##vit
szerkesztőit
##örök
26
laptörténete
/
tar
ani
##ocsát
egyike
pontos
íz
műve
##erd
közeli
szenved
hum
kider
művészet
##olog
##fehér
##ólag
##1,
legalább
korszak
érvény
olimpiai
##úttal
melyben
git
tak
készül
##ash
##ávol
##atikus
áram
##bont
könyvtár
##ölte
##család
##git
partján
gazdaság
##mutat
##ázat
##kutat
mérkőzésen
mexik
megkezd
híd
erőd
ítél
##rog
buddh
##rich
27
##kedik
##ael
funk
##szi
káp
kék
annyi
bu
parlam
kiadás
mc
támadás
##pály
kém
##olják
##örtön
##uel
alapító
elpuszt
engedély
##zott
15.
##rajzi
gyeng
róla
##munk
##orf
továbbra
##ipar
0,
##nyal
##szel
városban
jos
kíván
##ítást
emelked
levél
##más
mentén
##rep
megf
iránt
##keres
idegen
##olgár
##ans
##egész
##mester
dokument
kedv
sebesség
##kat
##óra
megkap
##attak
lakossága
##iről
bány
lemond
főh
gener
béla
századi
##ulása
származású
##ostor
házasság
##elve
ás
koron
##jében
georg
##lo
pan
átalak
szolgáltat
lakó
terjed
felelős
emiatt
##ismert
kastély
elmond
gyógyszer
##elle
érz
akart
ing
kiemelked
##ola
##almát
debrec
leginkább
##tatták
előadás
##iver
##űnik
feny
##üm
édesany
##ić
megfelelően
ritk
rajta
##oszláv
7-
##test
védelm
becs
megl
##művel
mögött
##lex
lovag
##szal
módos
mez
kapcsolatban
##öltöz
##ebbi
lip
##itív
elny
##ődik
##veg
megalak
##ick
##század
érdeklőd
on
halt
##40
említik
##enő
##eth
##nevezett
lakosából
rich
##uper
##gyek
##eccs
##kő
2012-
rendelkezik
világbajnok
rit
alapvető
ag
rad
kiállítás
30-
tudós
##orl
##yel
költözött
páros
források
##akter
##jog
##megy
##pat
pápa
##ödik
sík
leggy
múl
többnyire
önkormány
keretében
##éh
8-
alkalmas
tánc
egyéni
várost
forduló
államokban
lehetséges
##kett
talaj
halad
##aránt
##növ
köny
##term
##kozott
ún
##ama
körben
##ikat
életét
tehet
bán
alakú
##mis
'
hozott
hangszer
franciaország
produc
str
##bé
2003-
##ények
előző
egyaránt
##esett
napja
1960-
##felé
oda
történő
klasszikus
##sburg
maguk
##óság
##eles
szabadság
##pe
sváj
pléb
kultúr
autó
innen
##jébe
log
##hatnak
##ukt
##szlovák
művészeti
feladat
színpad
evangél
tárgyal
##orú
eső
pályára
kategóri
éjszak
##ákban
szülő
negyed
kov
típusú
##3,
pil
tartotta
##ológus
bab
összet
hosszabb
miközben
állomás
hatalom
##pa
##onyi
növeked
szar
bőv
don
használták
##etése
hód
##akció
##med
##ukció
aztán
konf
##éta
elmélet
írás
jég
##car
tartóz
6.
##oszlop
szobr
eh
##aiban
teszi
##isztérium
##órium
jelentette
##ációt
##ítést
����
##ikát
gólt
néz
viszonylag
##köv
elveszt
tót
északnyug
##80
##inál
drám
ágy
##assa
tartó
csom
hercegnő
13.
fot
##ságos
##hossz
hadjár
##já
(17
sel
(200
egyházi
esett
tol
1991-
konz
##különb
helyén
centiméter
##ozva
alapított
villamos
kifejezés
úgynevezett
kórház
##kis
igyek
legend
front
##ológi
feleségül
hátt
imre
paul
rendezett
fark
pécs
legmagas
##bil
lit
##osi
##ate
##rég
nemcsak
állít
##jától
##mes
szén
vitt
12-
##bir
##ényi
vád
##vég
##űek
william
alex
nevezte
császári
létrej
11-
##bi
működik
torn
##���
válasz
kezdetben
folytatta
60
jug
kétszer
14.
bécsi
##ace
képesség
leány
husz
##láv
##sek
##árólag
##zséb
tábornok
átv
polgári
rögz
##onban
##ászt
sta
gáz
alig
szal
1950-
kiváló
németország
kód
tartják
##kodott
##ódi
hím
gyula
##forrás
feldolg
finn
ostrom
lehetőség
##ein
vállalat
ly
##almak
##emplom
pill
végig
##harc
##rier
##aur
képest
##éért
létes
azokat
forradalom
##gyár
##fér
177
azonnal
szolgálat
filmben
##uv
##itz
sam
nevén
éven
##engely
abb
tü
elkép
legmagasabb
versenyző
ren
számítógép
jelentkez
35
som
##ons
##csk
nehez
bölcs
bejár
kinev
##ác
sen
##hold
poszt
16-
end
felül
fogyaszt
##szaki
cr
##huz
##4,
időszakban
##del
helyezett
##ean
talán
##előd
##arm
##ségének
25-
##ápoly
gyorsan
bőr
##élyes
##fut
figyelm
##tein
tran
rob
##alb
jelenti
tat
kut
##ami
elind
országban
amik
napon
katal
32
kaz
##örtén
óri
##ájú
tom
börtön
##ft
mo
1998-
isz
##alatt
##agóg
##ivat
##2)
réteg
megegy
##díjat
##ida
zárt
##onok
foglalkozott
kál
talált
##era
##jen
kizárólag
(„
vélemény
to
14-
beszéd
##ket
gyűjtemény
jak
ox
sy
felszín
für
##elemben
úton
##6,
székely
afr
tim
##áncél
##vad
megtart
kiadó
öv
##ezve
##száll
##ive
élete
méteres
##német
aminek
napig
lakott
##ire
különleges
kemény
##kup
art
zolt
jelentése
piac
tavasz
elnevezés
##művész
délnyug
##rád
##moz
jogi
##lovén
költő
fém
da
tib
rejt
sav
hálóz
figyelem
##eph
7.
mél
anna
29
hav
gyakori
elektron
##etes
##ij
felép
##péld
##elése
##nép
anyja
lez
##uma
véget
17-
##eon
erzséb
##usi
##szki
édesapja
##működ
##etik
közvetlenül
tisz
9-
##ezhető
##rak
nemzetiség
nappal
##):
##ömb
##hu
##chen
duna
jugoszláv
ezred
évesen
1992-
##ációk
##eld
des
##ure
usa
ugyancsak
űrhaj
különféle
##oft
kivétel
elektrom
tanszék
##szár
gyár
elvég
működő
fáj
nemes
##chan
##ciók
bolyg
helyezték
karakter
alakul
##vagy
felület
##korban
ötödik
cor
##ene
párhuz
##uzs
meccs
ütköz
valójában
##ikusok
leh
##kereszt
##orosz
##bur
meghal
délre
michael
valós
arab
zoltán
műszaki
##éket
filozóf
üzemelt
ler
cig
moszk
##ítésére
jo
felében
##ugál
sejt
megfigyel
##15
hős
létezik
dalt
kert
töltötte
##állomás
sokat
##hetnek
mutatja
erősen
gyalog
debüt
##idae
##orna
##oldog
18-
##heti
##helyi
ort
##ezred
sm
##párt
##értelm
no
##völgy
##ételt
##abeli
##ázott
stúdió
##ozók
kegy
miniszterelnök
wh
szór
##éppen
szász
szől
##oda
megtalálható
mes
##lok
2014-
felúj
dan
##szem
jóval
2013-
újjá
vették
szót
kib
előtti
békeszerződ
osz
##akkal
teszt
21-
társadalom
fc
##fin
##ándék
##eivel
szezonban
pri
##ada
kollég
##eset
szenvedett
##pát
##jává
22-
tervezett
követte
pozs
erdő
múlt
robert
##ánia
előny
idény
bib
vallási
szek
##70
##írás
vik
vezetésével
1994-
mások
top
toj
évszázad
haza
##orvég
nők
pálya
##keletre
jobban
##forg
központja
tudja
hőmérséklet
berend
si
ismeretlen
1999-
szerepe
demok
mac
##valós
publik
##odás
ahhoz
története
12.
##vétel
alkotmány
busz
kapu
unok
franci
80
13-
hullám
##budapest
##onyol
kiegész
##rid
nyári
szap
arc
tév
##osabb
23-
##ax
##egyik
zsig
##oli
lab
##ismertebb
##díjas
meleg
##esse
##arab
hivatalosan
##onc
##uház
megközel
civ
##érkez
tőle
pozíció
##okba
45
##ville
maj
##hír
##lett
10.
dis
szerepl
19-
nevezik
##övetkez
szovjetun
##ory
##hol
magasabb
##áson
leveg
változtat
sokan
egymással
maradvány
rendelkező
##unt
alakban
##ational
mondta
gi
ősz
európában
##ítási
műfaj
középső
dokumentum
jelentősen
olaszországban
##gyárt
lettek
adatok
##irály
28-
középkori
közösség
erzsébet
##si
megöl
ugyanaz
26-
portugál
2010.
nőtt
wal
##atórium
edző
összefügg
##képpen
##alizmus
##ky
##öket
1996-
24-
##úton
##que
összeg
##ekhez
##sy
kettő
északra
henrik
próbál
szakmai
amíg
hatás
ehhez
viselked
folyamán
##–18
otthon
érsek
rendszeresen
8.
jelentek
temető
##hatja
óra
##are
gyök
fesztivál
maxim
megvalós
##ward
bot
##25
els
eny
vonult
##ns
##akban
kiadott
eredetű
##my
##cső
semm
utáni
miskol
150
##ourt
vonatkozó
##száml
1997-
kul
fesz
megkapta
felügy
kolostor
olaj
##úgy
##1)
##osaur
élén
gab
tért
legfel
páncél
ideje
televíziós
##asi
bevez
##például
##űköd
kapcsolatos
orvosi
##3)
##kedő
aszt
nélküli
szövetséges
##”)
##íthető
trian
##ecsk
##17
##ésen
##her
elképzel
##ográf
közösen
##hid
ug
##”-
##három
magaz
teremt
győzelem
##yal
művel
kaptak
##kov
til
norvég
vége
11.
elérhető
zsigmond
go
napjaink
érett
belőle
vállalk
jellegű
együttműköd
david
##reműköd
bér
##terület
##ümölcs
családjába
##ála
##hagy
tudományegyetem
tevékenység
##jes
##adja
2,
##okhoz
néha
erők
tamás
felszer
mindegyik
(199
hip
##sze
bro
díjat
##erület
##gyes
bíz
##ekről
kettős
##gressz
töm
##tani
##epp
tok
##zák
küldött
rez
forgalom
##ései
1993-
váltak
tábl
##gyűjt
##ason
##álat
nád
közreműköd
kedvez
war
##lia
ettől
sokszor
járásához
lelk
választotta
régió
27-
mozgalom
##zió
festő
jer
##ros
##sztön
fenntart
fejedelem
##4)
környékén
folytatott
velenc
majdnem
##háza
albert
adtak
po
elől
##iban
változata
##age
erej
sorrend
mielőtt
wil
segéd
alkalmazott
do
##pi
##12
##ele
zong
izra
olt
##elme
cal
tv
szeret
jelenlegi
múlva
9.
bon
édesanyja
speciális
##nel
januárjában
##érd
##vai
##marad
##ezz
karrier
braz
##fl
mág
függvény
##központ
evangélikus
1995-
szerencs
hadi
jul
hev
##forduló
##böl
##ügymin
üzlet
legismertebb
birtoka
##polit
stad
korabeli
rajt
1989-
les
levő
##–3
fölött
##uj
,
szándék
ferdin
gyilk
kevésbé
all
fizikai
befolyás
##illa
2011.
látta
##cher
felk
boldog
megnyerte
##énny
hozzáj
bak
##jék
##énél
épített
régióban
változatának
##épett
kriszt
körében
futam
folyt
##éséhez
vív
##ektor
szat
megőr
lakói
jelentő
gyümölcs
nevezett
2000
##cell
alatti
##vál
##ceán
##foglal
hangsúly
mos
igazgatója
üveg
mand
lelet
cselek
végrehajt
##mérkőz
megszűnt
építettek
útvonal
tük
elé
##szerte
2008.
ipari
mem
can
évre
birod
##enet
sokáig
kormányz
##mad
kezdemény
kore
2007
elej
##ct
29-
##állt
lázad
ókori
vasúti
2009.
##jal
vilm
##ászat
##eres
arg
képző
meghív
##földön
lánya
opera
°
2008
##riai
##zést
christ
##ozzák
nyer
##ania
farkas
##őtér
angli
igazi
##umb
történelem
szür
mértékben
##kerül
ősi
mellé
tün
##ésnek
mész
##ois
építették
csatában
##ásnak
legjelent
körüli
védett
##perc
állatok
terjeszt
hasznos
##nyelv
##rob
évente
tanítvány
graf
##ínek
filmet
##árok
##asztia
készítette
nyarán
amelyeket
##anti
jb
##5,
##városi
##ena
békeszerződés
los
plat
ros
red
##szav
##mérő
##gar
phil
##amerikai
mindkett
projekt
vic
##oln
adja
james
##–4
500
doktor
legjelentősebb
1930-
elterjedt
székhelye
sorozatban
##ish
##üd
##életi
kutató
##ászati
megismer
közigazgatás
##".
##eim
tes
kath
habsburg
csend
##ski
##ivers
családi
##arnok
cigány
##élt
válik
##16
felsz
kiemelkedő
sop
adó
##ombat
találtak
##mon
létrejött
férje
nemzetség
mis
közönség
kora
milyen
kapitány
##we
eltérő
##őri
mur
##beszél
feletti
kezdték
##ezését
##erült
##ien
##ko
lep
munkát
lovas
##jével
felb
tüz
##jei
##ball
igazság
egészség
világbajnokság
szik
mezőgazdasági
##mann
cir
music
(197
méretű
160
##fajta
esk
2015-
##list
csont
##fran
##ációja
azután
franc
170
##emmis
ösztön
könnyen
##íd
szövetségi
végéig
##inte
reng
hozzájár
trianoni
elvesz
##aszk
hot
tulajdonság
##ies
##jához
2010
##szerkeszt
tök
autób
színű
##álni
##tus
##ésük
##íni
##döntő
semmi
##ger
érzék
valódi
##alkot
kolozsvári
lehetőséget
térkép
hadit
nyár
ázs
unit
##ozások
általa
176
cap
hozta
mérnök
nyíl
ty
bes
összeh
helyére
70
db
robban
nagyb
alakja
##aut
##fejleszt
stat
úr
lek
lou
##pán
pozitív
kommunista
minisztérium
##ile
##aga
##els
kv
ló
lej
friss
##ákon
##éc
székes
igazgató
##ezer
##vásár
af
árp
kivált
##elmes
kevesebb
politikus
ellentétben
rendjébe
minős
##etnek
2009
feladata
szülei
band
##köt
fenyeg
(2
eleg
##elők
ejt
területet
##ès
##ozást
##helyett
##állal
helyettes
oszlop
##kodás
parlament
mün
idősebb
anim
megsemmis
ra
##essen
részes
36
nar
##adták
helyét
##csapat
főt
##the
tartja
vastag
##özt
győztes
honvéd
elsőként
civil
##po
##eged
##rov
dig
disz
betegség
melyeket
##dí
##ázó
lenne
##patak
atom
állás
ib
##umot
tiszteletére
pontot
műhold
##ozhat
felől
munkája
repülés
kötet
ste
csapata
gőz
##okl
we
##alan
##11
magazin
dall
zavar
##%,
gram
##encia
soha
haláláig
selejt
ruh
##janak
apát
##ításával
so
##7,
munkatársa
zeneszerző
##uf
dv
attila
##5)
hivatk
anyagi
hor
##óba
##90
##8,
##értelmű
rendezvény
népszáml
szerepét
1920-
pre
##lel
##észett
##rált
területek
##enként
örökös
##no
oka
##onos
halmaz
fert
kever
##ánok
körülmények
##énnyel
elhunyt
##vegy
##jebb
##íték
##sc
##kl
##rány
forint
##ókönyv
egységes
szomszédos
##6)
##apcsol
formában
pu
oldalon
kultúra
jon
árpád
katona
proc
végső
##járó
##izált
zászló
palot
máty
történik
apró
nézet
tengely
versenyen
33
##ájára
neg
##du
tra
##ite
gyakorl
könnyű
hajd
##cser
2012.
értékes
rajong
##lehető
##olása
alapították
elterjed
arch
##ítók
##csat
szerződést
##gyal
##sej
##vin
zsin
##cl
állnak
akarta
annyira
eszterg
##ale
kitör
osztályának
90
szán
nyitott
##ame
előd
&
ca
földes
éltek
andre
minőség
lin
##fekt
##tori
##ellyel
##arc
##fest
##odox
antal
2006
színésznő
31-
németek
rengeteg
madarak
##éria
##egyház
##off
tartoznak
##szob
hideg
báty
##jeként
települést
##álisan
fon
kovács
hajl
##mot
slág
##regény
##üv
hatékony
ath
kincs
asszony
##han
##szül
értek
##ítését
##éch
##felv
171
##kó
mutatták
csatorn
ele
egyiptomi
rendezték
helyezkedik
találkozó
címer
##hát
alexand
fifa
+
magukat
mát
éve
szovjetunió
bol
2007.
##októl
##had
##étele
kommunik
régészeti
air
##ótól
##szerint
##ui
fényes
city
gyűl
##hatjuk
ka
##8)
költség
kárt
ent
átmen
gyermeke
kidolg
##hegység
résztv
##viz
##váz
elektromos
##űnő
##ington
egykor
energia
bejelentette
hatása
##bin
aj
lelkész
##folyam
sors
my
megtám
##jön
##itel
milli
utána
##eki
maros
kezdet
##iába
zongor
##ret
fajt
bünt
gre
##európa
ifjúsági
leggyak
pad
jármű
tengeri
támogatta
kezelés
nőst
dor
alg
##alit
##7)
vilmos
tapasztal
körzet
állomány
##elyik
önmag
##den
##szky
pas
használat
168
hitt
ném
sárga
##rof
strat
madár
alapítvány
##vert
##ókkal
szervezett
csehszlovák
fogva
##ásokkal
késő
##állított
##umi
egyértelmű
lél
##ozási
szeml
oroszország
west
##írt
org
vii
torony
mezőgazdaság
közigazgatási
##aux
##ásokon
erőszak
kijelent
egyet
magyarok
pe
évet
szegény
számított
##dr
ötlet
nemesi
tartalmazza
##ato
##hatta
##ármester
kontin
stadion
##pontja
fokozatosan
olaszország
web
##ezők
ablak
cas
szempontból
ugyanebben
##ónia
##mos
##elnek
búcs
személyes
##ugh
##efa
##eknél
meglep
hird
##birtok
szűk
akció
bomb
rud
tünt
##való
300
felte
nyúl
kalif
sakk
2014.
##pest
bíróság
tették
dán
fre
##uni
háttér
kaland
na
vettek
ortodox
énekesnő
kárpát
*
bul
##veszt
forgatókönyv
##eve
jelölt
meghatározó
táplálék
versenyt
##szerűen
175
##rad
titkos
##gyilk
építkez
természetesen
nagyjából
##döz
##idő
##way
george
jelkép
##ossuth
##érmet
keletre
##9,
##sza
##éje
legfőbb
keletkezett
piros
##ződik
##9)
kerék
jelzés
hatással
##úk
sajtó
gyakorlatilag
##lav
géz
autom
amivel
értelmében
királyné
felismer
##mod
##ater
atl
ferdinánd
roh
eleinte
##anni
testvére
##olaj
##ffy
néző
##ítások
##mérnök
##akadály
##dok
(198
rendszeres
önt
##ezések
##ítanak
járó
megjegy
védő
##legesen
stabil
cuk
pontosan
vándor
párizsi
##uck
##dék
##onikus
pesti
szabó
katonák
indított
templomot
lo
##rt
##ror
kiadvány
tó
##asszony
##ekezet
négyzet
eszközök
##első
2016-
konst
kab
##irány
##hette
szub
bonyol
##különbözt
tekintve
tartalmazó
királynő
személyiség
##szabály
családok
(196
jean
időt
tekinthető
betű
itál
2013.
élnek
vereséget
##oktat
remény
művei
kim
##14
mátyás
38
##essé
##etében
elrend
többsége
megérkez
##ájával
fénykép
megjelenése
##rip
összetett
##függ
porosz
életében
maradtak
vul
##járól
##omba
bit
##olna
bla
1988-
ellenfel
paraszt
bál
részére
37
anton
játékosa
egymástól
nyomán
##seg
##iny
megakadály
##áh
világbajnoki
##iga
##ménye
attól
##elést
fülöp
kossuth
record
menekült
gyarm
párhuzam
ült
építt
##óczi
főszereplő
##fiz
##bon
transz
terh
magyaráz
könyve
nevezet
németországban
##tté
városa
szegedi
##vak
közülük
kollégium
megkülönbözt
ék
észre
öreg
##elhető
##13
végére
##edek
##választ
155
méltó
nyugatra
tartottak
##sággal
térség
messz
##változat
szeptemberében
##üs
##sik
thom
krist
májusában
valamennyi
székhely
közvet
richard
alapította
##pót
öz
star
hunyt
hazat
##isztikai
##ère
nápoly
##edés
hogyan
##szol
##antin
##éseit
kard
verzió
csökken
##rát
velencei
rendelkezett
##kány
##hajó
veszi
##20-
törek
ügyvéd
indiai
változás
eredmények
gát
mindenki
irányban
##óknak
##ésekor
menet
univers
##ványos
akadály
kezdőd
fak
##artóz
eltávol
##ástól
##rogén
szuper
##nik
div
jelenik
169
metal
egyszerre
uralom
34
asz
koz
kormányzó
##étlen
csík
kortárs
##elmélet
##pel
frigyes
vizsgálat
lor
##enyészt
homlok
járat
állom
szlovén
benn
##szerkez
ezúttal
##–1-
törökök
##rum
lomb
járás
bez
##cht
bosz
##ülly
képesek
1956-
távolság
tökélet
márciusában
##ódnak
hátsó
dollár
szerv
aratott
decemberében
pillan
októberében
##own
rendezte
elb
##mint
pot
2011
patak
##iak
##rai
kulcs
##com
ten
napól
nekik
téli
megter
hung
##ary
időre
népszámlálás
megment
pápai
épp
megszáll
##aba
cast
autóbusz
mára
##angol
peter
mindez
##ren
uj
velük
egyez
mechan
##ásuk
##ea
##onna
repülőtér
megszerezte
egyébként
##aira
##eire
##ect
##ellenes
hatóság
sikeresen
érvényes
gall
kapcsolatot
fős
##azz
##orld
fajok
bolt
tűnik
##ement
##ico
jön
##ps
eközben
##etlenül
##világbajnokság
bern
bekövetkez
területeken
berlin
cip
##őleges
hossza
##fesztivál
elek
bas
utazott
kialakult
1986-
megnyit
##izáció
használta
bart
alt
országgyűlési
##iter
koncent
1984-
megind
bont
jelentőség
174
leb
##zár
##római
fordult
játszik
##ópály
megmaradt
bog
##bány
készít
tanára
##néz
##techn
kg
elsz
látott
##ozását
tanított
tartózkod
társulat
##cal
mir
##ling
##su
homok
folyamatos
##parancs
jellegzetes
##wood
tudták
én
gitár
##afr
##áltat
##air
2015.
másnap
##sem
integ
debütált
hús
##áld
##rópus
gyűrű
##por
novemberében
om
ajánl
##sd
elérte
megválaszt
##állom
szír
kerek
öccs
televízió
dur
##sá
##európai
szigorú
értelemben
embert
ram
kapcs
elutas
##–200
jéz
##király
falut
##igur
légi
levegő
lőtt
jutt
##rag
túlél
##ráció
##szerűbb
találhatók
szerződés
bemutató
meglehető
jelentett
##atart
ba
számok
##ute
##atty
visszak
szabadon
említett
##elési
##itális
##egyen
szeged
ul
##jenek
kanadai
előkész
településen
gráf
##ane
152
ball
2016.
##prém
london
habár
lassan
hatodik
bizonyult
##ánci
színházi
sűrű
##így
mindent
##cu
orb
hur
kikötő
kivég
##don
ét
##száma
legrég
3,
funkció
stratég
##áng
japánban
159
##orok
##bach
moh
géza
játszotta
##édi
1987-
##erték
debreceni
cd
vin
londoni
65
##hass
szink
##ezési
ritkán
##gu
##ikusan
##került
##efon
csapatban
lengyelország
unió
készültek
megszünt
##ade
prem
növek
húsz
birtokos
családja
mocs
rovar
##ekul
munkáját
mért
##együtt
2012
##tudományi
##pon
harang
akkoriban
monarch
harmad
##kés
ukrán
csod
technik
éghaj
kongressz
elkerül
magának
(195
szol
öl
##csi
##ago
összefog
fennmaradt
kiterjed
kolozsvár
1945-
népi
sláger
ura
2005
kissé
látsz
##umok
eredménye
##rata
jelenlét
ned
##jev
teher
csal
hadművel
kompon
sopron
##ezzük
szex
cikl
kock
vasútvonal
győr
onnan
ezáltal
barokk
napjainkban
1982-
##irág
elhagyta
1968-
##zy
erről
##ília
ív
1985-
##nyit
##ero
hoz
ajándék
##oxid
következők
bemutatott
##ric
negatív
felszabad
##ajzs
##elmét
##eteket
luc
##társaság
járásban
##árták
##kit
átlagos
szőlő
ideiglen
állította
amelyen
##inus
kiderül
barátja
konflik
##járás
játszottak
##–5
főiskola
kifejleszt
iskolai
toll
173
eljut
feltár
nagydíj
kérdés
feszült
válogat
haditenger
februárjában
veszteség
szál
többség
formula
formájában
tétel
##yl
##ulnak
időn
##ocsi
##ódtak
##bír
álltak
másodperc
##szkij
bizánci
pénzügyi
baz
21.
alól
grand
korban
elismert
sáv
okozott
pécsi
fur
szilárd
óv
ellenáll
bizonyíték
mt
##ili
##edt
önkormányz
bázis
közgazd
polgármester
##falu
kiválaszt
##och
megelőző
sci
48
békés
kémiai
letartóz
erk
156
##czy
##mat
##ülni
##aján
##erny
2006.
foglalkoztat
##ülnek
belga
rel
százalék
szocialista
##sav
diplomát
us
1978-
buddhista
ször
##ezésére
johann
fogadta
vagyon
életben
írták
##aját
vak
##robban
környező
címe
szerinti
részében
objekt
üd
##ierre
120
##ektől
black
##ici
jenő
king
##adni
argent
melletti
martin
##elmiszer
uefa
##nai
##olható
hozták
megjelenik
mutatkozott
szult
kiáll
csatorna
##állam
##öböl
változó
párizsban
##uch
találkozott
##vizsg
##íli
1976-
esetleg
1974-
konk
bri
##forr
nyilatkozott
##outh
agg
opt
records
44
gerg
##ulását
építész
##számú
##sík
##fokú
következett
rekord
##lók
dep
önként
31
fo
szam
##ovics
gon
##–6
elnyerte
közti
##opter
sikerrel
##ever
este
1983-
##dob
hu
carl
egyszerűen
élelmiszer
##lés
##omet
augusztusában
##35
##ères
szög
amennyi
##rópusi
széch
herm
pályán
##orod
wind
##apt
érkeztek
mark
##herceg
cam
faluban
2017.
##gyen
kosz
post
vajd
##rabban
belg
ráadás
egyenes
romániában
temploma
svájci
##tur
valamilyen
pályafutását
##ih
valóban
állították
bajnokságban
kezdtek
javaslat
nyak
halott
győzelmet
##aja
##una
##száz
hajtó
jézus
túlnyom
##ségre
thomas
fedél
kecsk
vont
bevon
pos
konzerv
world
energi
##vezér
lemondott
##mart
you
rendes
jövő
400
fejezte
ahonnan
q
enyh
szinten
rendelet
veszprém
##polgár
óriási
res
166
vám
producer
bizott
lakosok
járműv
##con
xvi
érkező
pedagóg
áprilisában
##erem
##aszkod
elkészült
##templom
##orth
1.).
utcai
1945
hárm
##uan
takar
mérkőzést
íg
##ódás
##ülése
##iták
##ráfi
##hajtó
finom
üldöz
##vös
##edő
##házi
##ennél
bod
##ősök
táplálk
sikerül
kutatási
1972-
fir
font
meglehetősen
reklám
harminc
párhuzamosan
ritka
konfer
júniusában
magyarul
133
végeztek
##hattak
egyiptom
(����
##gen
uralkodása
feljegy
##33
##dy
margit
fe
tél
##íts
##)-
mang
eb
temes
felkész
elhelyez
1940-
erdők
foglalkozik
mexikói
##anc
##ava
##érmes
technikai
noha
##ságának
használja
világszerte
betölt
1948-
ga
emlékezt
##rang
##vasút
plébáni
meghatározott
rakét
(2017.
előz
##jainak
újságíró
##rix
sark
##agn
nevéhez
##?]
##olv
sir
##pap
##ulni
(194
eng
futó
154
szk
##bíró
háborúban
##tatta
milliárd
árny
idéz
kritikus
##közép
csaknem
##egyes
##cionális
##ys
##mind
2004
1975-
szláv
##burgi
##művészet
biztonsági
##vidéki
izrael
##–7
##hogy
##zések
##udi
szőr
kun
amint
tég
rákóczi
lehetnek
##őkép
bajor
papír
charles
##tette
42
##utak
##field
használata
őszén
alelnök
foglalta
##áth
##enben
##parancsnok
##anna
##öngy
megelőz
ugyanez
##emét
gold
##allgat
részvétel
##ye
újonnan
elért
1979-
műemlék
elhatár
kiny
##ségnek
##yr
##vöz
egyenlő
bay
sil
##inn
szavak
##vonalban
példa
minim
használnak
##alis
##ozíció
kénytelen
##áram
szikl
protest
dala
##zsi
39
##ságba
kiköt
nic
burg
##intézet
csel
##tő
##ézia
svájc
1973-
ku
nagylemez
hagyta
75
##óceán
felder
##iratok
szolgáló
##kai
##kék
napi
pra
##für
alkotó
pon
hajót
önkormányzat
szert
iszlám
nb
krón
turné
dvd
légier
vid
##olva
képviselője
##tön
alp
szembe
méh
nehezen
nyújtott
kilométerre
katalin
##yn
fész
férfiak
##izett
##ográfi
akarja
elf
minél
ráadásul
valami
kivitel
kiemelt
tűnt
��
1977-
szórak
őriz
bécsben
alkalmával
használtak
pót
özvegy
folyóirat
ök
##teljes
nyelvet
igazán
1981-
eredményt
##onóm
##ukra
##gond
##úv
lakosai
##ttel
nik
oszmán
földi
##ipari
komplex
színházban
##eződ
csapatában
##ellel
hasonlít
víg
meglát
##tern
##oknál
##ordin
henger
kristály
##mir
1000
##adása
und
élvez
##ákra
élett
2013
##isztikus
##ügyminiszter
közlekedési
tip
labor
foglalja
##enyi
##cím
sajátos
##ítója
1971-
elsőd
##mező
szerkesztője
hadjárat
##cus
írja
64
kupa
akivel
gót
##hatunk
valah
##hl
tükr
##történeti
167
idős
kos
##sok
hajók
méret
jobbágy
##kedés
camp
színes
bre
számrendszer
ron
##ájába
47
##zését
fővárosi
##orit
legközel
alkotott
##áknak
##okról
szinkron
##érte
akk
gyan
gran
kijel
létrehozott
hoztak
ráj
báró
jelölték
egyedi
csapadék
számban
mire
##vezetés
találták
városában
megalapította
tájék
140
ásvány
igazolt
beép
főherceg
beszám
##bev
##brit
hatást
történeti
kass
##anyar
##"-
den
##even
def
visszavonult
rendszert
bat
zsák
tudtak
figyelembe
nemzetiségű
kn
amennyiben
##helyen
háborús
sos
állítólag
bad
ext
lakosságának
torny
##seb
tevékenykedett
sol
rögtön
márton
##ressz
sikertelen
szellemi
fogja
##ouse
pető
##ásba
szentély
##hettek
dolgozik
tető
##ellát
reakció
lux
##anyelv
természett
laz
riv
érettség
polgárháború
hirtelen
tour
utat
megvéd
állapotban
##inger
angeles
honos
##kutató
pozsony
hill
##elője
##ispán
##ségű
pann
land
épületet
##board
1949-
esik
szoros
települések
bocsát
támadást
kán
##lim
##erson
##onk
jac
prov
összecsap
ukraj
bí
##erni
természeti
bok
többen
figyel
tetsz
##umban
ausztri
##bal
középkorban
164
vágy
##éseinek
##mosz
kalifor
##ményt
francis
kuty
trag
földön
1918-
##óly
ven
##ászok
##egység
árt
befog
##ítésével
események
budai
##ratikus
##horvát
##épület
kálmán
találta
united
##igny
##asszus
##oph
##iket
máig
š
##csa
##egyűjt
egyházmegy
157
bolgár
szerzetes
uradalom
##ítélet
##alja
csomag
gergely
##anda
##hetjük
##irt
földrajzi
heged
##atőr
louis
165
miss
tiszta
##ová
skót
##rikus
##értve
(16
2014
kikép
55
musz
vállalt
leszármaz
tanári
##katolikus
##ánsz
##rot
liber
rózs
vihar
városrész
használható
rendőrség
pályafutása
ezelőtt
mob
1969-
háztart
metró
rendszerint
##üsz
gömb
##aszn
férf
##ozásában
##ikailag
jud
153
elmenek
kihasznál
mr
##dor
szur
##tekint
megúj
rt
nagyvár
##amar
##oldali
mah
kritik
##eget
jackson
play
##ítsa
nagyrészt
országok
harck
##chester
ád
##album
kiss
ri
kivételével
professzor
##ello
(189
legk
liszt
rabszolg
amerikában
júliusában
kasz
szün
venni
illető
szarvas
eszm
ragad
foglalkozó
##ali
##edtek
1964-
##aw
–,
##ításában
elfoglalta
egyenlet
neves
##lie
udvari
művelőd
lim
##enyom
kutatások
##ciós
megnev
##4),
##elég
##program
csapatot
##essel
előadó
szabadságharc
legnép
képregény
##–8
##pan
létezett
réz
(3
kapcsolódó
vegyes
##heim
halak
gyenge
korszerű
doktori
##csont
protestáns
##ámi
függően
##láb
##atlanul
##2),
fele
batt
akiket
napóleon
jim
kies
nob
##ows
##amin
gro
oklevél
•
##ága
##oper
megép
##ésbe
máv
bossz
indián
fennható
##napi
megfog
törekv
megalakult
stílusú
részeként
##rei
tibor
teszik
2017-
zenéj
##siker
1957-
világos
##ágó
fenti
##agon
alul
##–0-
cz
##áshoz
##jav
##urt
trónra
##zési
jutottak
rendezés
nyomtat
kísérleti
okoz
##eredeti
műszer
kapcsolatok
172
##ensúly
##orozat
##színház
megszervez
megtud
merc
követi
dolgozó
##hív
##almú
##öttek
maria
##ars
##yű
alkoh
##neses
kilogram
alf
internet
résztvev
##lők
##ament
rát
##orid
tavaszán
mars
szokás
tüzér
városok
##folyó
##eték
##kisebb
fejezet
szerzet
oktatási
##aték
melyen
beav
##assó
##házy
használni
##utaz
oscar
luk
balázs
királyságban
fiát
46
show
##ija
##rey
jogot
szerkezet
válogatottban
rod
szempontjából
##olnak
1967-
##osszabb
értéke
vegyület
határozat
eljárás
##etését
##azon
##barlang
magasság
időközben
tu
karl
férj
##ítéssel
reggel
fegyveres
ov
legfeljebb
kiép
esély
##ionális
##rez
szin
anyanyelv
torkol
hajlandó
##tet
##egyver
szök
##lini
simon
gerinc
lí
végleg
##by
##keresked
##gi
processzor
##zser
1966-
egyid
tenni
tej
délkeletre
comp
elkülön
##játsz
##iskola
##enzív
##ításának
##falva
káros
##45
##etési
mérg
kiderült
tengerpart
##its
##rek
szociális
43
belgium
lud
vály
##lása
koreai
számon
ellenzék
báb
ru
##ejtek
határában
magával
ellenséges
##ejű
vl
légkör
érdekes
írásos
megír
ariszt
##olyai
tervei
világon
szultán
romániai
ily
számot
egyén
állampolgár
lelki
szombat
afrikai
megvásár
cserél
ügynök
gimnáziumban
##tain
mindenn
##ásáról
##kupa
házi
tudat
kérte
dics
##hetők
harcol
##eu
##act
lenni
##általán
bell
##199
1962-
zenész
orr
##olvas
25.
romant
##omer
##rus
stílusban
öltöz
zala
emleg
kategóriában
lezár
alacsonyabb
németül
végződ
##uri
##lány
kitünt
tartanak
főút
##ületett
##illy
hetedik
##eskeny
világháborúban
##ekven
bors
##iás
##ítési
többé
sw
dim
##ességét
##ague
rev
ken
2003
billboard
##ild
barna
kataszt
megoszt
elbeszél
##ivatag
felmér
ennél
másodosztály
ellenség
megváltoztat
���
##osaurus
legény
szoft
amellyel
tartományban
##rí
##arth
##hetik
1958-
információ
##edző
elköv
jugoszlávia
fájd
felépítés
##odor
erkölcs
építő
inf
mong
mondja
szakért
autópály
századtól
##baj
újból
iskolában
egyáltalán
iszt
##oszlás
##község
gyul
matematikai
2002
számát
kifejezett
1990
telefon
aktiv
dolog
számtalan
helye
középiskolai
##üh
koronáz
1938-
megjelenő
dek
krisztus
szertart
kud
pus
##ukban
pénzt
gir
stan
működését
ti
##úti
mic
zajlott
##zésére
video
helyes
különbség
##zsák
okozta
mas
pak
domin
terve
bolygó
##niuk
emig
romb
olvasható
##ense
szlovákiában
politik
figyelmet
magába
szörny
vékony
##line
évektől
balaton
alapvetően
##áinak
várat
egészségügyi
##óf
dez
germ
görögkatolikus
##hő
hívták
karács
(188
egyúttal
##szert
terén
##alj
xx
##eiket
beszélg
##álják
megnöv
##eleti
összev
kutatók
##ekedett
##döntőben
dolgozni
mened
varázs
legut
emelet
szintű
tervezte
##ugár
rap
albán
hálózat
szülőváros
##ance
love
költemény
##.-
##tr
lehetősége
##sár
ve
##élék
döntés
megszak
##ácsi
##örög
tartani
nőstény
országot
##ifik
mérsék
életmód
##kert
130
területét
szigeten
tagjaként
##iii
történetét
##mik
163
torna
##alakúak
halálos
##ásokban
amiben
útján
kőzet
örmény
##kun
##odó
pic
ös
jakab
profi
##ilap
##repülő
1965-
nyilvános
##aire
dub
partner
kongresszus
##asa
##arest
értes
##ükben
immár
előtte
franciák
megért
##ady
huszon
csapatt
időkben
angliában
dani
##saint
bíbor
másrészt
játékok
életet
·
kívüli
mennyiségű
##úri
bejut
iránti
22.
##hatják
dalok
tettek
##szakasz
miszerint
##ná
száj
műhely
gitáros
dém
tanús
tiltak
##gé
##íliai
##oklip
bert
terem
ismerte
##védő
komárom
##ekély
##onstr
lista
gyül
ilyenkor
lánc
##ességet
harcok
átmérő
oktatás
##1),
pok
##kód
dam
kif
##oba
##álása
dev
kre
mutatta
##béli
##ozót
may
vonz
spanyolország
##chi
rájuk
pilót
termékeny
##ues
gomb
kezdődik
csendes
legkisebb
parancsnoka
##ké
##ower
kína
foglalkoztak
##ima
cit
albuma
sí
##kult
##szál
##hard
címen
münchen
videoklip
légierő
nyelvek
alakította
##ettebb
##24
többet
kecskemét
megr
##–199
használatos
jász
##ozására
megszűn
##félsziget
1954-
induló
rog
##75
long
senki
acél
##lép
cirk
bátyja
4,
testület
megmutat
eredményeként
sérülés
háromszor
északnyugati
épül
##tető
##étert
forgalmaz
ezenkívül
szakember
lib
hónappal
tartalék
##0,
elvesztette
##park
szerepelnek
##wn
leghír
##ezésre
##használ
##pontos
rómaiak
ban
##irod
158
pajzs
tudják
elpusztult
##oid
tanú
percben
ür
étel
149
szic
elfoglalták
kh
láz
hajóz
23.
##elését
##lès
termeszt
nincsenek
érettségizett
##örg
farag
##liai
##emi
##eiből
produkció
##mozd
##vonalak
##kelő
##asonl
szel
rug
győri
##ánus
##jukat
##váltás
horváth
petőfi
haditengerészet
zar
háza
cart
1963-
eddigi
dinasztia
##vall
##ilit
lám
##alizál
harry
öngyilk
mesterséges
##etn
lejt
1944-
altern
magában
##önk
növekvő
nyilvánosság
fogalmaz
##edelm
nyelvi
róbert
##hon
átvette
igyekezett
fertőz
##ekbe
valaki
matt
##hetünk
csoportos
utasítás
szervezetek
fant
##enberg
keskeny
##","
##mont
endre
felszám
feltehetően
elfogadott
kub
iskolát
származott
változatos
56
pontja
1952-
kötelező
felaján
##válogatott
történetében
ta
##ászl
orvost
terjedt
##rap
űrhajós
védelmi
sosem
##darab
##aras
##iverz
hivat
##bem
##fordult
ezeken
##övet
##kiadó
(193
mold
említése
2015
határozott
ismertté
##ológiát
##iót
##eszköz
területeket
palota
##ikon
kiind
##bér
holt
róma
tagok
sorozatot
wash
selejtező
buddhizmus
joseph
##mát
##22
##wd
kivon
harcolt
##szárny
##méretű
##almának
##eszánsz
táb
##ítések
olimpián
##fil
kem
nat
ötven
dol
text
kontinens
monarchia
tulajdonos
fen
hány
##hálóz
gyöngy
fejlett
döntőben
hazánk
berg
##ilabd
felvon
sin
sant
előbbi
messze
idővel
##ezd
szélső
##bár
##iller
háborút
club
marosvásár
##ray
49
pog
vidéki
autonóm
részének
kezdő
feloszt
növények
##árius
imád
##éses
magn
harci
említi
konstantin
##kin
szobor
##tion
segítséget
részesült
##anya
##vesz
tisza
mult
vetett
##hen
##öder
koh
legyőzte
lév
megjelentek
##roc
hard
interjú
##telep
sur
anya
székesfehér
folyik
kivéve
##szen
beoszt
##tudomány
beszélt
váz
ni
##agan
##akon
##képző
tudni
##oroszul
##hn
##őlt
meghód
viselte
24.
csapatai
##–9
##oros
anyagok
molekul
búcsúz
akiknek
1961-
##olcs
katolikusok
##ster
fiv
nála
hátra
leghíresebb
utánpót
lényegében
##6),
##őre
állított
alag
életének
besor
pászt
téren
egyfajta
északnyugatra
csoportok
váltotta
##mozg
##őtlen
##tiszt
kamp
kiesett
segített
rendelkezésre
1941-
gam
peri
horvátországban
(15
fried
##rod
##ásából
látták
készítettek
que
védek
nemzetek
##eszi
tür
halálát
konfliktus
közz
2005.
det
1947-
##világot
belép
tömör
bajnokságot
hun
1939-
##8),
bag
függetlenül
##alált
juni
1848-
elsődleges
basszus
##cen
hy
balk
mindennap
horvátország
fejlődés
##ms
sum
(��
##ásainak
aty
cár
##tették
exped
futott
formája
irányította
##icz
##unak
felhív
##etta
lipót
elemi
főiskolán
nevezzük
##atokat
##afrikai
hallható
##eksz
146
doh
végez
vír
##uli
##íci
##fed
##rális
kombin
fék
bármely
művészi
gyártott
##adal
1946-
fázis
felirat
mig
öröm
egybe
vasár
tulajdonosa
itteni
munkái
képzőművészeti
szoftver
viseli
145
aláír
megeml
elegendő
látni
vezény
##nén
napján
délkeleti
30.
legkor
előseg
rendszerben
festett
képviselői
időpont
magyarországra
közúton
##ogó
##ádi
jogos
fiatalabb
##nár
nyugalom
mta
league
##román
kedvel
látja
kezdeti
albumot
##ságok
nyers
##10-
szep
elmondja
kiterjeszt
éjszaka
alternatív
gárd
mikro
korona
helyezést
ezekben
kápoln
##7),
vevő
üzleti
##3),
##eff
tulajdonképpen
felgy
döntetlen
147
tengerszint
lélek
születés
kétség
##ru
##ulást
koordin
sup
ülés
jelentősebb
##yt
betűk
sárkány
ret
##szintes
állatt
elméleti
amin
biztosít
következik
milán
mérete
főszerkeszt
##ulf
üreg
##tud
##ória
##őlük
lee
közre
ágost
##elli
spir
ítélet
professz
segítette
##kát
##aiból
tevékenysége
magára
napló
##ques
26.
lend
digitális
washington
roll
kért
##biztos
##etésre
##együttes
ann
##estek
cla
##ude
háborúk
csatolták
fontosabb
listáján
##zél
fejlődött
festmény
ádám
könyvet
kering
jók
strukt
játékosok
##ool
�
eger
békeszerződésig
feláll
1959-
bekövetkezett
##–201
1953-
1900-
semmilyen
liga
ausztria
hadosztály
juh
##csökk
összehasonl
címét
gyerekek
##csarnok
korán
1857-
##amerikában
évforduló
##ird
##ükre
főnök
##beszéd
gondos
##ásait
veszélyezt
bekerült
##ales
##ötték
2001
eskü
írott
##becs
céljából
bizottságának
##mill
indok
legsiker
##ua
hitel
ingyen
##esco
##ézis
jelenség
területi
##ream
##ívum
vita
felkelők
alkalmazta
##kóz
##akadém
5,
##álkod
fűződik
oklevelet
boy
észt
házában
##ji
##szigetek
dinam
international
2016
parlamenti
szerves
fred
uralma
alapítója
enter
##anács
premier
elérni
dupl
tóth
##úp
##kán
##bolt
maradék
53
oldali
trónörök
szeretett
fent
folt
rendkívüli
##jan
alakultak
##9),
##idősebb
hamis
##etikai
##ís
sárg
mexikó
##enné
##éshez
##airól
tökéletes
fiai
vért
##anta
perces
lex
52
annál
hegedű
képzés
északkeletre
28.
##adást
henry
kamar
##ítással
elemek
tervező
54
##ózis
büntető
ideiglenes
vályi
bukarest
##rol
##éra
##aid
##rendező
gondolkod
heves
képet
tükröz
ezeknek
tervezték
alakították
58
tapasztalat
hekt
##–17
káv
##barát
nagyherceg
##otípus
száml
mintha
megrendezett
27.
berlini
##jak
londonban
gyakorlati
fák
állást
tág
legsz
tengeralatt
rh
folyók
várt
##ántúl
off
emelkedett
demokratikus
kft
##típus
(186
reneszánsz
győzt
su
középpont
##uzsál
trópusi
##györgy
darabot
##átri
anglia
##ágaz
kedvelt
legsikeresebb
litván
egyrészt
leggyakrabban
##ításra
széchenyi
##ossá
viktor
apost
bus
1955-
elnöki
intell
szezont
fiatalok
nyomás
##vét
##ttól
##ukle
közölte
kialakított
klin
ud
előáll
alkotta
##ulva
tönk
##őző
pav
##iával
épületek
zág
##ekkor
érdemes
##pénz
##zéland
roham
##rin
éles
addigi
felfog
lebont
várható
##ülést
##várt
káb
jellemzően
főbb
é
prop
##álatok
madrid
folyadék
perzsa
real
##onként
szu
otthont
megteremt
##wa
##ote
##ékek
sat
##ényes
oxig
2018.
alapja
legidősebb
agyag
kiszabad
szimból
##anus
jót
##korong
beth
##olasz
##lán
feje
táp
barn
1951-
határa
arányban
sand
##éttel
edward
600
robot
##atkozott
smith
##lar
dik
##ötvös
##burn
rip
##hiv
1944.
közösségi
##képp
tanító
szolnok
mutatott
##ária
##zött
app
erősebb
##fesz
szánt
##zeti
földet
színek
kimond
kerülnek
építészet
##mp
belépett
kand
szimb
rendeztek
esztergomi
beleértve
cer
##műves
látvány
regiszt
##vet
1880-
leánya
falak
kocsi
##vörös
ellátott
jellegzet
északkeleti
##iája
##tartó
kiadta
felekezet
egyértelműen
eu
emelt
##ital
nav
ítélték
jelentkezett
szimf
teológiai
##ükk
angyal
óriás
##elvény
délnyugati
veh
ferr
##ükön
forma
színe
##szöveg
##ságában
öccse
másfél
vallású
fordított
választott
kifejezetten
nézve
##aka
##ásakor
anat
##etti
földre
részei
##óka
##űri
cos
##mentes
bund
rövidebb
végleges
gri
folyton
kritikusok
bos
futball
##onnal
1921-
tizenegy
##ulta
tob
##ardo
##aikat
popul
##eredmény
open
##cid
részre
házasságot
##amis
##aurusz
abszol
##44
##éi
megköt
##politikai
##győz
1936-
építészeti
bb
dns
##odtak
eötvös
kerületben
pilóta
figyelmezt
kilogramm
##ов
162
148
ellentmond
felvette
miskolci
##empl
##telenül
normál
##rah
##ítse
anal
fürdő
fid
##gyűjtemény
csapattal
tilt
keny
élére
##tárgy
abból
tizenkét
##kom
##kon
étt
hazatér
győzelm
huny
vitte
##win
ázsiai
megőriz
tatár
élőhely
telepedett
##lege
klip
##szolgál
legfelső
##une
##ezete
##jétől
szerzője
lic
királya
filozófiai
##idge
lok
##etikus
hordozó
kicsi
..
jeruzsál
##orban
évében
santa
vb
csák
belsej
##emelked
délnyugatra
ismerték
##fű
##fogat
##ektív
ellene
megtan
brazil
ábrázol
felsor
kapcsolatba
##junk
díját
remek
##szerzés
leszármazott
(187
##úszó
##niai
laboratórium
##jű
##jaz
fők
feljut
##áli
|
népek
későbbiekben
##ipp
gh
birodalmi
berendezés
##ébb
felmer
leletek
##ásokra
##emok
##kocs
##ecz
változik
##aszám
##hatták
##korában
kopony
##zene
##ator
gondolat
szolgálatot
##barna
miért
összekötő
##latot
érzékeny
irányítása
rendszerek
##harm
##bázis
vonat
somogy
hegyi
##ansz
125
élénk
gyöker
##házban
problémák
bord
küldte
##letet
fagy
##oka
olv
kört
##szülött
újságír
##rac
##onne
1991
##hossza
fajta
egyedülálló
##oi
##órészt
elfogad
##spir
##ásból
osztályú
buz
úsz
temették
kapcsán
##ffer
1929-
flotta
junior
taj
automatikus
adam
támadó
bakt
művek
##ársasági
##aig
##iszi
szentelt
háromszög
külföldön
##ún
gonosz
##ársa
##felvétel
hitler
ho
##allal
1944
admin
award
elektronikus
elvált
##szolgáltat
##etők
##isztán
rudolf
##éval
##álnak
szerette
mary
konstr
##domb
zágr
évekig
##angolul
filmje
mete
##ítót
hangja
bü
1998
köztársasági
##ásán
épülete
fedélzet
##közl
távozott
kedvenc
57
##szar
csin
képződ
williams
expedíció
pályáz
##labd
koncep
zsákmány
##fia
tők
ígér
—
##zata
fölé
irányába
aur
sám
indultak
(192
északon
részéről
144
kaszt
##oszaurusz
eltérően
gyermekük
tömege
vonalak
szerinte
2017
oltár
ottani
embereket
kant
bizottsága
muszlim
jelentősége
windows
gyermekeként
dáni
##cir
##ítésre
1945.
aust
prím
##kore
jez
hep
##sztikus
szerkesztette
##iók
balt
##ela
gor
vizsgálatok
##etésére
##köztársaság
negyven
##ogén
brand
építése
kony
##kil
##ury
prág
biológiai
következmény
##hord
hug
nor
éri
ital
1935-
##olo
##jesz
##városban
mellyel
1919-
pia
községben
fordulóban
történetének
##úny
kedvező
leggyors
ekkoriban
hó
települ
##dinasztia
novell
nyáron
nevének
##65
##aknak
142
neur
kanyar
tartós
váltott
lot
ütem
kapcsolata
zsolt
hozzájárult
250
super
zsidók
rangsor
nagybáty
üzemanyag
regionális
##má
biztosított
nyomd
nevében
köszönhető
##ízis
##álható
cserébe
valamely
szűz
élől
jelzi
szárazföldi
##listán
könyvt
nápolyi
szerelem
##lor
6–
halász
68
rajzfilm
##niük
filozófi
kapcsolódik
dátum
szerz
leromb
nit
létező
##nos
##akar
vívott
rendelkeznek
1920
1925-
amiért
bour
1890-
vezetői
cselekmény
##ezeti
barcel
történész
világban
##.:
143
##itány
xvii
létesítmény
##orvos
sáros
tudnak
megalkot
##idák
hind
line
trans
animációs
túlnyomórészt
mellette
1913-
hatalmat
tizenhat
##erk
##oszi
132
29.
dezső
mandátum
##ical
##ilván
cukor
szakos
139
nyilatkozat
elítél
doc
param
holtt
családban
##őv
érzelm
valóság
##eter
megfogalmaz
##ekvenci
szereplők
közgyűl
##növény
gépek
szállt
##nője
tre
találkozik
kudarc
##gáz
##rh
1999
##átorok
rendelt
dolgoztak
aránya
hungar
##raf
szívesen
ásat
helik
##ölték
##kednek
mozgás
játszották
##iki
szerez
161
kimutat
tervek
rómában
probléma
1928-
##jéhez
alkalmazzák
chic
éjjel
##iform
sziv
stand
illuszt
1937-
média
adják
helyette
jelentőségű
85
##letek
##olyan
clark
idejében
szokásos
127
134
ross
partbír
##ásoknak
kapták
listán
pannon
idényben
láthatók
##anci
holly
moszkvai
konferenci
##des
god
##essék
képviselte
gyerm
##gyermek
asztal
##ázni
1943-
##öng
("
reag
egységek
##ókép
##péter
sorrendben
alapuló
menedék
költészet
national
##ings
sző
1995
játs
##hivatal
fogadták
romantikus
bizonytalan
##jain
márk
##bizony
lépés
##irodalom
légvonalban
számrendszerben
feleségével
##ibb
##ömeg
fogly
rivális
színeiben
##visz
húg
kilát
felkelés
##íp
##árium
jóvá
játékokon
svédország
helyiség
tisztség
##eser
##usban
véve
melyből
maximális
##pu
##beteg
erdei
univerz
településnek
elte
hatvan
č
##árty
ult
##állomány
pályája
zón
időnként
cont
##erházy
##sw
sör
múzeumban
forradalmi
kori
terep
éveiben
##gá
##hull
##ménnyel
elöl
löveg
regénye
##ká
eurov
gén
vitték
napvilágot
országgyűlés
sis
##opp
##ányos
##ájátsz
elnevezése
##ript
perem
##húz
##iana
költségv
átk
tagjává
net
ple
ható
nagyban
##ican
##hegyi
1994
##aktív
##adására
hangz
schw
írók
vil
##ítenek
##nov
szerződött
pod
szed
1934-
átlagosan
délen
vizet
arm
újpest
mérsékelt
champ
elválaszt
tanítás
##38
sun
egyenl
vesztette
##lánc
135
adnak
aleksz
bales
##réteg
világi
##use
##pressz
pozsonyi
veszélyes
##járat
lányát
##bizottság
számítógépes
láng
##itu
hívta
nyugdíj
neveztek
tekintik
##örő
rusz
august
egri
várak
rájátsz
jellemzi
legrégebbi
##ía
##rig
lef
##vent
##erman
##francia
szóból
alakítottak
##reng
bibli
geomet
testt
##ánnyal
elad
érkezik
##igy
számító
dráma
közelebb
vezetése
##híd
##arap
##apság
##iából
feladatok
visszautas
2004.
tárgyak
szobrász
##pas
ray
##virág
royal
eltűnt
délután
megváltozott
tehetség
ast
flott
beavatk
fára
záró
tig
##gyógy
szexuális
manchester
##tav
##tanács
tartoztak
írtak
##szlovén
##rosz
fiók
délkelet
hozzájuk
##metsz
fegyvert
138
jelző
##endszer
dallam
kitűnő
jar
hozzát
művelt
bevétel
nyilvánvaló
##ake
##anz
liv
59
mezőny
fam
zrt
rozs
vallásos
##afélék
lakót
valamelyik
##48
bocs
kapos
##dög
##fogó
129
##isch
alkotása
##váron
##öly
##ásd
##ozható
évezred
mozog
falvak
iván
##asztal
őrzi
villa
##lást
##ianus
vitéz
##do
##ájt
lis
alkohol
birtokosa
világörök
megegyezik
legtöbbször
ass
led
terül
véletlen
96
(���
magasságban
dó
amatőr
gyilkos
adományozta
151
lang
##kam
nyugaton
parad
gólját
##áf
##jére
gala
minő
karrierje
megél
felbont
##csúcs
irányba
szeretet
alakított
szir
vízben
glob
szilágy
konzervatív
rav
ot
lassú
sejtek
##ho
pomp
molnár
defini
próbálk
##iano
brassó
##vezetője
bátor
pin
##océn
úszó
sivatag
##ruh
##latok
sajt
##telenek
részvény
határt
ion
##avart
manapság
nővér
tehető
hiába
##kás
megoldás
victor
bejárat
las
##okatlan
gyilkosság
##lig
jazz
intézked
##ikum
(185
végtelen
##löv
##lalt
##őrség
hívják
##zus
(190
##arn
##fe
rub
adminiszt
többféle
##medenc
közepes
varsó
##–15
ip
##–198
hajnal
hidrogén
működt
##cy
##később
királyt
##olk
patri
nagyköv
##row
defin
tagozat
országokban
##emp
baleset
egyensúly
##adalm
##iának
lord
tölgy
hadtest
játszódik
továbbjut
##ole
1926-
művét
##olók
##érek
128
hatóságok
##dorf
1924-
fossz
felajánl
##erb
##hét
személyek
temetőben
legnépszerűbb
##öccs
kod
dinoszaurusz
##itása
##mund
##tét
gyermekek
##ime
##ison
##nevet
meny
63
##otikus
meghosszabb
##tere
soh
##iti
800
tized
hármas
jégkorong
trónörökös
lágy
mozgat
soci
sas
jezsu
assziszt
szüksége
1828-
ponttal
1/
##entális
ellenállás
1931-
66
haw
helyezte
baktérium
ign
sért
alapú
hajtott
hegység
110
leon
alfaj
nagym
püspöki
vármegyében
##7).
gyom
farok
kalóz
##23
6,
füst
##rövid
csomó
1989
meccsen
keresztes
##uki
hatását
akárcsak
kezdetét
számítás
legenda
##jévé
zal
uraság
##atemplom
szokatlan
mindketten
##éber
##ébred
tudjuk
##ines
##taur
124
##veszi
ensz
héttel
vígjáték
közlekedik
##adója
feld
olcs
##hosszabb
terjesz
nyolcadik
technológi
románia
pók
adni
összegyűjt
##álva
tényező
bármilyen
##lic
eurovíz
konkrét
tanítványa
##üdt
tényleges
arag
partra
legendás
összefoglal
##oto
##egen
##level
1992
alkalmazása
##28
támogató
##-1
pek
legú
nagysz
éjszakai
nyelvben
állap
igénybe
7,
##eger
##földre
változatát
##uta
magassága
##feld
mobil
ráb
ölt
basszusgit
##.[
##inci
##isten
##ációkat
népszerűs
vízi
tanulmányai
1922-
tonna
fővárosa
esetekben
1927-
1942-
##eződött
95
##adon
##állapot
bukása
##imir
##asszal
áttör
viii
területére
##zöld
fort
tevékenységét
31.
szülők
területének
##ée
mike
magánt
megszállás
##házas
mari
1933-
kiterjedt
##dél
lelkes
##etések
##ulus
##latin
pole
emil
atlét
biztosítja
##ériai
járásában
tir
##gő
agr
ident
támogatásával
##állyal
kiált
##vezetést
akarták
1996
kívánt
olykor
online
szállították
##áva
dorog
városba
##gó
biztosította
egymáshoz
húr
##omlott
nukle
elődöntő
írásai
billent
miskolc
##óniai
kalap
átmérőjű
##ákból
##cska
##önny
albumon
kampány
##üggeszt
angolul
scott
eredményei
kereskedelem
hagyott
legelső
vonalon
közönséges
rangot
legjobban
##ália
önkéntes
##eville
előállítás
##robbant
##üzem
mid
monte
##amerika
dohány
haladt
színvonal
##can
(5
nyílik
állítja
##ogatták
játékot
##euma
éghajlat
##kb
##zenek
##kos
##ensis
bajnokok
hort
mass
menedzser
136
day
1923-
##zete
boh
harcos
##etty
illír
sztár
##ulladás
mindkettő
##regy
győzött
hátrány
up
emberiség
körülmény
1993
figur
léptek
felfüggeszt
lelő
megsér
##ikája
jelzésű
szabvány
melyik
megfigy
stre
célra
##onda
pályaszám
csoportja
alkalmazták
ernő
amiket
kihalt
##tábl
cső
kellem
haderő
menekül
alkotják
elfogadta
gyakorolt
##oul
##aris
súlyosan
hagyományosan
##ávid
félre
művében
liberális
személyesen
szerepeltek
ax
ural
matematika
##ösen
##románul
hár
titkár
ausztráliában
##viv
fas
nevelő
helyzetben
##egyed
zenét
##alíció
1932-
szünet
terézia
galax
##iratban
dalokat
élvonal
##lete
kot
##tlen
amire
##emont
##ességgel
##igazgató
fellépett
##utatták
megálló
jeles
életre
csapatnak
lop
##ilton
marx
szürke
##arag
##forgalom
próbálta
1997
##éke
##átsz
itáliai
jelenet
##ítsák
zágráb
kra
##rendű
##uttat
báth
oxigén
forgalomba
felügyelet
##ken
inst
ajánlott
megerősítette
oh
##sort
(4
moszkv
semmit
terror
letelep
##27
wolf
##uláris
művet
##ságra
figyelmét
##elésére
lombard
sét
elindult
lam
kígy
mágneses
legújabb
university
dial
bethlen
##vág
ky
mór
##ozással
egészében
kitüntetés
##ike
##atrész
##oribb
köti
kereskedő
ahogyan
##fon
##tervez
bites
sülly
benedek
##énes
posta
felment
lakossal
tanulmányokat
##élyeg
hozzáfér
követett
államban
##ado
##enie
126
ajt
##feldolg
emlősök
függőleges
göd
##eteit
##élly
pecs
intellig
##ilkol
észl
sikere
mondott
völgyében
##%)
kötőd
királynak
##önyör
kisz
közlekedett
illetően
##roll
levelező
eti
vírus
##vén
##eihez
bevándor
##illes
játszó
anyagot
építését
megkezdődött
ajtó
corn
##éséről
fennáll
választók
némi
felszerelt
munkássága
##.),
kutatás
prototípus
állítottak
41
##hire
méd
chap
dávid
lesznek
##haus
gabon
leggyakoribb
##bes
tw
medenc
árnyék
követelm
alkalmából
horg
##fesztiválon
fájl
ottó
belüli
irányzat
##főnök
kamer
kórus
alelnöke
kérdések
legközelebbi
##26
szántó
##mez
##őkkel
##ider
egyesek
útt
felvált
stratégiai
##őknek
büntetés
keletkezik
megpróbálta
##aro
##evés
steph
mongol
##szterc
csillagok
üzen
átmeneti
##198
kle
útja
kihív
támogatja
##urn
tex
##stein
oxid
radik
legutóbb
school
csip
kijelentette
választásokon
##dzs
##yan
kuk
##ükkel
##ezéssel
kápolna
utoljára
hollywood
##fort
bulg
macsk
távoli
win
##afrik
héten
megszok
##szervezet
##lór
##odást
zaránd
kezében
2018-
##helyek
plébános
készítették
##vend
##gyök
##szoros
##ativ
keleten
folyamatok
önkormányzati
ung
##menet
##ew
##ámadás
kerékpár
kislemeze
elhelyezett
lag
##alitás
istenek
szórakoztat
társaságában
##viselő
látszik
hangulat
legkorábbi
##táv
##ációját
töredék
földreng
##mok
##áciai
##–0
üres
régebbi
titokban
bonyolult
erdélyben
##helm
dir
védelem
emlékére
##.).
akadémiai
##történet
egyezmény
erőteljes
leggyorsabb
##éül
##ukkan
lapok
pur
##attól
hónapig
##ennek
titkára
kiegészítő
számukra
oliv
1912-
##iformes
atlanti
világot
megint
eurovíziós
törökország
eleme
99
ali
megseb
térfogat
##emplén
persze
hany
maur
##ethető
diszk
fészek
pen
benz
eltör
rájön
valaha
##ajt
##hőmérséklet
visszafoglal
##ander
jones
hölgy
##bet
nad
körű
merev
képzett
enz
##vándor
divat
vállalkozás
##pro
rám
írni
levelek
megbízható
létszám
kezdetén
##zon
##fény
cre
aktuális
szereztek
##nyolc
öngyilkos
##")
##korszak
emlékezet
akn
menti
videojáték
tizenöt
feladatokat
korosztály
lif
buddha
hatású
rakéta
##oux
##aszín
buda
sikereket
szövetkez
karán
hiánya
##függvény
apátság
alcsalád
##lata
szan
##ségeit
napos
alkotja
india
kínában
tay
##lista
továbbfejleszt
##etője
##lásd
vaj
grafikus
feleségét
papp
foglalt
dug
##lagos
célba
nobel
##olya
bru
zöm
termelés
tartózkodott
##iel
##rie
##váll
optim
viselő
családot
##oter
north
filmek
vallotta
választó
friedrich
szatmár
helyeken
teljesített
...
pinc
##jaiban
bírói
egyidejű
konstantinápoly
##pir
##entől
forró
##felület
:
daniel
debrecen
festészet
1914-
bah
sab
##ályos
könyvében
unoka
szélén
##inai
south
utánpótlás
leghosszabb
hist
##összeg
bálint
osztották
másol
##repülőgép
abszolút
jelentették
csuk
##fiatal
felir
légit
bob
hivatkozva
sztál
firenz
csoportba
##erto
##szlovákul
koncepció
##mit
radio
ric
mtv
##énekes
űrhajó
##takar
nig
##ekint
szerzők
adóz
kihal
művészek
74
##asem
##védelem
britek
##örténeti
tájékoztat
ern
micros
tetején
##fül
homlokzat
##vat
utak
házat
kibocsát
##ume
fab
pul
67
só
adatai
sely
ágyú
énekelt
középkor
##ereszt
télen
yorkban
mozdonyok
gum
zászl
##66
##iához
kialakul
esetleges
korlátozott
##iság
elj
##cselek
hátul
bukkan
egyetemre
##nay
turn
##kong
##umbia
high
kosár
szorg
##ográfiai
ízben
##szláv
##ömör
mam
virgin
etn
##itkár
feltölt
kond
objektum
##kes
##anov
tax
körök
nádas
minőségű
eredményeket
##],
párhuzamos
##ennel
##pálya
bemutatk
építtetett
joe
részletes
cell
##kr
##atik
hadművelet
eper
stát
hírlap
##négy
holttest
költöztek
##intéz
luxem
említették
##29
házak
kerületi
autópálya
##szoci
lapos
diákok
argentín
községközpont
##sejt
##házat
feszültség
##uer
##neve
flam
kiadása
kancell
munkájában
szerzemény
##work
éva
tudom
ellenfél
döntöttek
tevékenységet
##üvely
teret
##németül
##ításához
unokája
lépcső
fejl
##gimnázium
##iff
sus
##istó
fűz
##gyakor
##ösz
137
rand
##etter
##szeres
visszasz
kibőv
##ajz
##iek
szigetén
vietn
##ürg
szurkol
##21
ismertek
merény
műveit
gyönyör
##pozíció
katasztróf
##tk
nick
tegy
írható
fedezte
grúz
gabri
áthal
jöttek
88
##vész
kval
##vezeték
##kiv
missz
felszól
márvány
##hasson
játszani
prom
brüs
napot
templomban
##világbajnokságon
kizár
hay
elár
evol
házban
##halmaz
##szavaz
meglátogat
fár
anyanyelvű
bom
hell
##illesz
##–10
##ékkel
bányász
kiejt
97
szélesebb
##ety
##osp
##anszír
bombáz
vig
##étlenül
jártak
vezettek
építette
##úció
ari
export
##szól
hül
amelyik
véleménye
csapatához
ebbe
##iverpo
turizmus
tibeti
dollárt
##aster
rost
orgon
##isi
##ítésében
sajnos
ugyanezen
##szek
##csillag
##ációban
szerelmes
##ml
aqu
genetikai
sűr
szintet
belváros
iskolába
##ách
##agne
##küld
zsír
sohasem
one
bács
óceán
##ops
csarnok
keresett
##amon
mérkőzéseinek
megm
körbe
##ódus
conc
elhelyezkedő
##színek
##ásától
definíció
##go
jós
izom
brian
elmél
lőr
azoknak
1911-
va
bezár
##ery
giov
##kál
##ikák
##gyártás
gyarap
hónapos
##ogn
drog
ruház
##vo
szók
##előre
stock
##okatest
úti
elef
hepburn
élmény
elesett
##helyettes
részecsk
kís
ugyanazon
valamivel
##nac
ju
big
steve
fogalom
puszta
szentelték
tán
zsűri
##ump
lehetetlen
viselt
formátum
ábrázoló
érezte
##ozásával
ellenkez
##képzés
kényszerült
##szün
1850-
immun
borító
##ozásra
ilona
állapota
##cc
##táb
##őződ
nom
haute
videó
disney
halálra
vármegyei
##hű
koalíció
híve
orbán
irányú
gótikus
kifejezést
nemzedék
##üveg
textil
változatban
##jobb
##kedv
##zavar
benc
by
##zmus
szorosan
lar
##cserél
##mely
##aihoz
college
meggyőz
komolyabb
oc
ivar
kielég
unokaöccs
kormányzat
##well
ezredes
államos
származnak
szövetsége
visszaszer
találhatóak
folytatódott
##ügyminisztérium
bízta
nyitra
hiba
sportág
vesznek
##kín
##umul
léteznek
##bék
wat
betör
juttat
mélyen
határán
függetlenségi
turista
jelennek
##kák
felét
ke
köré
kitart
kicsit
##ozd
##ányai
##39
védte
esztergom
veszik
##ope
##letes
##kór
##ucat
wood
##ogyaszt
##iként
pers
##eret
##landi
kockáz
virt
kén
faja
fejlődése
##ulla
kai
##enburg
ötvöz
gur
##ikába
##szász
megcs
helyzete
évtizedek
testhossza
##őrös
sec
##ukkal
##fegyver
magához
berlinben
##ána
sóg
helyreáll
kinevezték
kad
parkban
2000.
könyvek
##49
##atom
##ázsiai
szemlélet
how
nevez
hétköz
lemezt
királyok
használatát
##adár
##szabású
beleegy
lind
büszk
ismerkedett
írói
kellene
terjesztette
##agyta
csill
rendszerváltás
gil
100-
szülővárosában
érm
hotel
zenem
liverpo
cseleked
hétig
kiegy
dand
csapatával
##ikó
hig
##onnyal
drámai
restaur
küldetés
körülv
értékű
##stem
fotó
1991.
visszatérő
##lég
##izáló
becen
települése
legszebb
engedélyt
választja
##ст
mégsem
feloszl
ágaz
##ingham
vezeték
kend
jelöli
versenyzővel
becsl
##atokkal
helység
választás
létrehozta
skó
const
rosszul
78
forgó
ugyanúgy
##arin
##özpont
##las
##neh
1848
human
##fejedelem
válogatás
recept
ausztriában
vasútállomás
“
##wig
2001.
családból
évszázadok
##–197
##olást
1870-
##falvi
telek
bartók
raktár
szállító
székesegyház
nyelvjár
szalag
vasárnap
szerzetesek
##pil
##uzz
69
győztese
vidéken
parti
legelő
erődítmény
##asy
nézők
adatokat
csapatokat
dalm
zsold
növényi
beker
előír
nacion
dobos
##pol
helyezkedett
mennyiségben
kikap
zenekart
##elin
##ng
hazánkban
bejelentették
szabályok
tiszteletbeli
amen
##anyagok
építeni
képz
##ogh
##ülve
gaga
ördög
áthely
évadban
javára
szenvedtek
##amely
##helyet
##hették
##kastély
##sebesség
területre
robin
##imb
##lási
ori
##hor
kapac
határozza
##forma
gramm
metsz
képezi
tudósok
141
##hajók
flor
miksa
robbant
hivatalnok
##ras
##rációs
internetes
die
kijev
zárta
##liga
botan
megszól
támaszt
játékvezetést
##64
arn
ezalatt
megindult
fis
esküvő
újjáép
##5),
##annia
nevezetes
lew
chris
isteni
caes
húzódik
színpadi
művelődési
##hav
##unn
gord
testtömeg
##ővel
avar
naponta
könyvben
##mo
zo
peng
jellemezte
##jó
düh
fekt
hercege
változások
ahová
betegségek
fu
gyermekei
##szór
##ítésének
jótékony
##komp
eltelt
összekött
tro
levált
tenisz
wall
eltűn
fiának
##2).
##rendszert
publikált
elnevezett
összetétel
amelyből
##hom
dra
méz
##ságosan
társul
##bánya
tudás
helyeztek
tekintetében
pall
pierre
##2%
##’,
hong
spor
ix
süt
gard
bihar
##öltözött
végétől
érintett
különálló
##uhan
##kedtek
iskolák
##arl
betilt
fiatalon
órás
hétvég
unokatest
##ring
son
##hullám
századig
ősh
irán
##gazdag
elvár
levelet
##ökkel
békét
##terem
1908-
fából
##íve
épültek
termékek
##ivált
##házak
eldönt
arth
főhad
##élemény
érintkez
kárty
döntőbe
coll
nádor
oklevel
live
inspir
narancs
karmester
megelőzően
77
##érem
próz
tenyészt
##ко
földközi
táblázat
1500
piramis
##app
##költ
ciklus
érhető
##érm
##ésszel
kav
##martin
képek
műford
)
okokból
káptalan
lyuk
piszt
hallgatója
anti
közlekedés
érdekesség
73
##árend
tony
##iára
lav
batthy
kultusz
pillanat
night
8,
deák
közlemény
letartóztatták
rekonstr
felkerült
szentpéter
nyír
##iro
átép
teste
kereszténység
apa
##művet
billentyű
##bej
##vill
vezeti
munkálat
munkálatok
1,5
blues
régen
elsülly
támogatott
##km
##jek
megnyert
partvidék
törvények
##issz
##tatott
szenny
válság
feladatot
javasolta
fejlesztés
diplomáciai
##díjra
enzim
tekintettel
##ega
##eta
karácsony
megszokott
##ks
##éző
könnyed
##szegi
csig
with
123
##kodik
beszterc
kanadában
jur
lányt
kapnak
politika
##ode
betelep
gyűjtött
gyülekezet
##lu
cur
finanszír
szerte
jag
biztonságos
##fik
##adva
barátságos
##gát
##nevek
borb
tükör
programot
##sugár
sugar
nedves
##jelen
elül
hein
városát
xiv
indítottak
##menny
meglévő
számmal
tartalmazott
alkotás
alapítottak
szaporod
követelmény
##jogi
##ítők
kiadták
helyzetet
történelm
##bek
diagn
##medence
elveszett
##árban
fokozott
msz
##anná
áron
##vállal
1917-
többiek
##kö
foglalták
##cse
stud
##sűrű
##jelölt
csecs
##nt
##die
##krit
box
letölt
hatalmát
megbeteg
születésnap
##ikban
világhír
honfoglal
sincs
##cha
##járm
kilép
csatlakozik
beck
1905-
bűnöz
##iers
##edy
##fiatalabb
koszmosz
microsoft
##rib
##ube
76
##ványok
lan
just
varga
dániel
foglalkoztatta
##atus
##ogen
100%-
visel
megszök
felderítő
kelem
meggyilk
sep
mecs
rajtuk
falunak
##ámaszt
idejét
ítélte
vezették
87
##olási
mögé
##erősebb
erejét
erővel
izraeli
kötelezett
imp
fiúk
akadémián
teng
beruház
##cheni
akitől
bekapcsol
sza
antik
játékvezetéstől
##nák
##astr
muz
versenyzők
##áma
##zattal
##zá
tűn
riport
##oktatási
felügyelő
avagy
##tató
##aku
próf
##gyűjtő
##ase
##andin
##fajok
greg
1906-
károkat
elmondta
hamilton
könnyebb
chi
tudunk
levéltár
lovagrend
##ан
átír
modul
állandóan
fór
##errel
nagyapja
csodál
közöttük
rém
##oland
eléged
laur
mindezek
összefüggő
##oma
préd
megism
színpadra
váratlanul
honlap
##ezésével
aba
csep
tanácsos
mcc
csoportot
budapestre
pres
forrása
vizsgálata
maradványai
mesz
pogány
ausztrália
##utató
legfiatalabb
##lad
##ötel
koordinát
angel
standard
álláspont
##sv
kw
##torony
2003.
konföder
kézilabd
##prof
zak
kézzel
segíti
moszkva
##ató
##tosan
vari
lakótelep
##ájából
filozófia
##hiány
szag
kitört
##ee
##oton
vén
mutatják
##ítói
##ozzon
##szerkezet
kaj
##auszt
jogász
vitatott
frekvenci
ábrázolja
##díjjal
szabolcs
producere
##lon
deut
családjával
kri
városnak
koncertet
megpróbálja
131
egyetért
zarándok
##rény
##mában
hegyek
sainte
hanyatl
fejlesztési
gyakorlatban
##műve
kvant
vezetők
grán
mérföld
pályaudvar
vezetőedző
##ételi
entertain
operációs
##cio
vész
kiszám
főparancsnok
##üld
##éhoz
kiki
kislány
megszab
bent
taylor
##számot
##iák
##anár
##torny
##ólyom
##zer
tang
agressz
wilhelm
##otten
##értékű
passz
jóváhagy
karrierjét
hans
bil
##elések
##uil
cro
##elles
##helyzet
##nyugati
meteor
barátai
98
##oldalú
##ermelés
problémát
(6
##venes
szólt
szakán
##mb
görögország
##eneg
##ájához
földbirtok
##100
##égett
brown
kommunikációs
dalai
ű
lényege
dog
törzsek
chil
anélkül
vezérkar
választási
##óv
##ürt
##ókban
##ájáról
sérült
szimmet
fesztiválon
##dp
fürd
hegyes
megtekint
##alp
##kozik
megtag
##csökkent
##yer
##itől
oroszlán
christian
##művek
##önyve
gyártó
boszork
könyvkiadó
##termeszt
rendszere
ligája
sorban
látszólag
épületben
##sta
ft
##cast
utódja
bed
telt
(10
lapot
##tam
##szil
priv
istent
kád
marc
fresk
kvalifik
tehetséges
támogatást
##fark
##rejt
kupát
nevezi
pesten
bíboros
bűncselek
##öbben
hímek
##anyagot
leszám
vok
##abeth
küldték
##emokrata
kilépett
környéke
elfoglalt
##ges
sós
személyzet
700
főre
##ikával
##uther
iroda
befekt
##jb
##hangzó
általuk
hér
##uay
##hangz
reak
elődje
uralkodott
elszak
haladó
differ
vállalta
##magyarország
##álog
##annyi
élte
terjedő
##21-
hatalm
szakon
ellenőriz
személyében
##úf
##fenn
plan
leáll
##kerület
tornán
##magyarul
ismeret
##árny
##ájukat
említette
környéken
látványos
3000
beat
roma
beáll
illeg
jelölte
##ando
nemzetiségi
hier
##mérője
elismerte
emelkedik
tudományok
##kok
nál
építkezés
##eszk
főispán
lakója
összeköt
tű
##ségeket
tulajdonában
megfigyelhető
útját
csekély
alkotnak
irányított
juan
asszír
##énak
viv
shak
##ellék
alapon
falusi
nővére
születtek
##kv
ibn
via
kolost
nevelés
##odr
##ogle
információk
ves
hagyja
formáját
nagydíjon
rákos
megszületett
kutya
annyit
szigetet
mh
way
néprajzi
szakasza
legerősebb
##ović
kapus
##örténet
férfit
89
##rácia
jogát
1896-
roger
cy
##csom
##ikkal
remix
biztosító
felmerült
megkezdte
##yi
##aff
xi
##mári
egyetemes
##nős
fejt
törp
közölt
irányító
dalszöveg
búz
lyn
görögök
entertainment
1907-
betét
##lói
##figy
##adások
csaba
gépet
##rup
##éka
##épp
##ervez
##ikkely
századból
alekszand
##kerék
ritmus
erkölcsi
végezték
házassága
cin
sima
humor
street
hadifog
járatok
dolláros
filozófus
elnevezésű
1941
##?)
##akör
jord
tonn
walter
magatart
telepedtek
stone
fidesz
számában
##arus
##ítású
állatk
támadások
##ercs
##jegyző
mg
##icus
##rett
harcot
dj
faz
emelte
történetet
személyi
cop
##nó
kong
1990.
együttest
ráv
time
építési
birtokot
mezőgazdasággal
##jo
##onták
bevall
fogságba
79
##enyő
számának
##ss
##bahn
fox
mura
hajlam
intenzív
##óját
cass
fern
adolf
##etésével
(8
51
##polg
##esküv
##itekt
heti
behat
szíriai
nyíregy
adatbázis
államokba
##36
##ünnep
athén
vízszintes
teráp
company
sokféle
##ito
roz
semleges
nyugdíjba
osztályban
cons
nemi
rövidesen
##nék
##assák
hangot
sub
filmes
fognak
##ions
hiteles
tavaszi
vonalat
##34
##mor
1860-
##enstein
világra
bbc
##viszony
radikális
##rendi
1989.
módja
nyertek
mindhárom
##eck
(9
eléri
csinál
működése
környezetben
##újtó
harckocs
platform
véletlenül
##ekedés
kezdetek
mechanizmus
kéri
birtokában
választókerület
##cium
maz
móri
##ológiában
elenged
megsérült
kilencedik
##párti
##millió
deport
produk
potenci
rendezője
##3%
cat
növend
fejlesztése
##pari
##agyőz
bánt
##ciókat
fordulat
párizsba
##kár
lásd
irányuló
##entin
##ásként
2002.
prost
építmény
gimnáziumi
leny
pecsét
termet
elkezdett
választáson
aer
##attyú
##pedig
##ínium
helyszínen
értelmiség
power
játszanak
##abella
fogják
általán
előzetes
##isa
##pierre
közli
közreműködött
prog
félig
generáció
##zőként
malom
hektár
arisztok
##dun
##ône
##ceáni
bebizony
nőstények
##obe
halm
azelőtt
báthory
##ességében
##törvény
határőr
##közös
botrány
bélyeg
bevezet
szociáld
kormányzati
peking
járművek
mindennapi
ábéc
##éllyel
küzdelem
kommunikáció
órát
propag
elmegy
próbálja
rei
##sárga
leford
harcokban
történtek
##!”
anth
egyenesen
hangsúlyt
trencs
##ításokat
páratlan
not
rim
tőlük
fellend
telepesek
nőt
nemesek
##nit
##arát
rac
115
valamikor
elutasította
##inal
##itást
anyai
hajdú
találkozás
##rezent
kelemen
ukrajna
##ódása
eredete
zenéjét
általánosan
##akép
##számok
testét
lemezen
zrí
vert
pilis
tartoz
lejátsz
argentin
monográfi
befejezése
szolgálati
esztend
hollandia
##oo
##anth
jeff
erdős
szapor
egyházmegye
##orum
##íves
marie
főiskolai
főhős
herald
oroszok
felhaszn
rendezésében
##ázta
alv
nyilvánosságra
fac
1980
major
átmenet
nagybátyja
##–16
bükk
##oritmus
##elkedett
elvégzése
megelőzte
ze
##szerek
évszak
nemesség
útvonalon
vulk
torped
felvették
reprezent
##szerv
küsz
intézetben
mu
##pet
sürg
##hálózat
##ítéséhez
képezte
állomása
nagyszabású
##hot
##felt
brun
bull
gyász
képez
bűnös
földművel
pszichológiai
kassai
##lón
mans
count
huszár
átdolg
meredek
főszerkesztője
##bus
sig
##ógrád
##hetőleg
##ográfia
rögzített
tot
tagjainak
cel
judit
határát
előforduló
##hág
##éjét
atlant
legyenek
##vasútvonal
középpály
##32
##ро
##eman
##esty
drág
dolgok
##197
lakás
megtiszt
##som
dinaszt
##érc
##álódott
##európában
##uly
enc
kiszor
charlie
csapatát
csehország
szótár
kikiált
tüdő
hosszas
gondozásában
lár
##mérnöki
temetkez
105
vigy
(14
##éstől
##kapcsol
google
lír
infr
josé
sang
követve
##iben
pih
##ítsék
##almasabb
szerezni
alexander
felbukkan
világháborút
##egő
egyidejűleg
kak
adapt
house
tanítók
ellenében
##erdők
##áival
kate
haladva
pam
ára
bosszú
veszprémi
pel
lenn
jutalmaz
vásárolt
ereje
##andináv
biblia
motívum
matematikus
##eiről
##ingen
gyer
##őlegesen
erőszakos
művészett
statisztikai
##37
##inam
beszer
szakaszon
ól
wei
ivan
feküdt
munkan
giovanni
##ségük
best
full
##csatorna
emeltek
gyönyörű
mess
avatták
kezdete
szemmel
pedagógiai
jen
okok
térségben
##ckép
##ensek
##zenei
melly
kötelék
##tatás
mann
1909-
franz
programok
num
folyos
##3).
2,5
heav
kart
##iratot
fedett
megfoszt
frankf
hazatért
minimális
##épít
##szögű
ingatlan
szib
##bizton
véres
alkatrész
közepétől
részvételével
euró
helikopter
ugyanolyan
szomszédságában
lőrinc
magyarság
példányt
tekintély
tengerész
##ném
##jelöl
száműz
antonio
milliméter
##abbi
esztét
északról
választások
megbízásából
háló
szűr
megvilág
struktúr
előadásokat
##aceae
##ókusz
megkérd
tankönyv
##gyűrű
thai
segély
főszerepl
paraméter
##végig
##ütköz
héber
##zatot
##mennyiség
sebességgel
kifejlesztett
##odi
##rok
philip
kegyetlen
stef
�����
boszorkány
##nag
##azaz
ted
keszt
értéket
kijelölt
##eo
##isc
tét
célpont
##ésből
goly
##ichy
##esnek
helyezés
képtelen
##ésén
kihagy
témája
beépített
##ázás
elejétől
statiszt
batthyány
blokk
licenc
németh
##nyák
gál
kezébe
piacra
##mak
##feket
elefánt
##igazgatója
díszített
megválasztották
##mol
##etette
island
kétszeres
rig
rág
##organ
arthur
lefelé
mértékű
ezüstérmes
##inae
wag
dőlt
foglalkozni
szerkesztett
eug
jane
egyelőre
szakosztály
##telj
##ödött
##jesztő
andor
átmérője
elvégezte
##asok
ülő
megtört
technológia
tűzolt
intézmények
1988
alagút
bejegy
mondat
##maj
sorra
differenci
lock
indította
debrecenben
károlyi
szélesség
##ody
lewis
alapját
##ovi
takt
tipikus
##forgat
hozza
amerika
határja
mérkőzések
##ejét
ága
##ische
aznap
üzenet
hallgató
automatikusan
him
##adásra
##bridge
##irodalmi
tűzvész
németországi
tun
hader
system
állítása
##ange
adri
mestere
gás
hett
tanév
kupagyőz
##ukáz
##fürdő
##zatok
##csatorn
püspökség
maradványait
##edón
1918
vásárolta
##fri
##kut
##jaival
1941.
##szereplő
időtart
lehessen
pályáját
nős
loránd
zrínyi
##resz
dram
hadnagy
johnson
fejlesztett
green
adományozott
##bri
##ttá
##írója
karban
kérésére
találjuk
változatlan
##sztr
kötő
közlöny
harag
instit
86
##evők
##idéz
játékban
##alg
##sky
puc
1900
nógrád
##jánál
1918.
elrab
white
hüvely
##oria
##észe
lába
másodszor
törvényhoz
kötöttek
mindvégig
tark
amiből
akkumul
1970
kerülő
##szalag
munkav
zsinat
munkásság
##őtt
pól
felek
##olására
üledék
folytatása
yo
##adtak
##iptikus
hangját
ss
nembe
afrika
céllal
visszaj
##oki
80-
titok
unesco
amelyre
népszavaz
##tisz
fiút
máté
nyel
munkák
vagyok
hatalmi
alakulat
himn
függő
##kapitány
tesznek
ellenőrzés
fővárosban
változatot
1904-
##iról
als
##astrukt
bach
kabin
kanada
dialekt
teljesítménye
84
legelt
kenn
szegély
elkezdte
nyolcvan
1992.
stein
wilson
tudatos
##–195
vmegy
erőfesz
##szeretett
különbözik
##emy
feltünt
oldalról
##aiak
##hessen
növekedett
##ira
##espe
szabályos
öböl
##ulási
##ertől
abba
edzője
##eda
##olását
golden
xiii
napilap
létesült
helyszíne
##dn
bow
diós
készülő
birtokosai
##elekt
elkötel
méterre
nagyhat
monteneg
##hár
main
alárend
##hassa
##adalmat
közvélemény
tartalmaznak
##inter
elülső
punk
ezekből
nyelvre
élőlény
szimbólum
lady
##jegyzék
előtér
kitalált
##óti
##ision
##méter
##éveszt
apját
oldala
stílusa
órán
1867-
lakták
liverpool
dat
líce
teleki
lényegesen
##ston
megd
tanuló
villám
dolgozta
(7
sze
érintő
legfelsőbb
##mas
rangú
csomópont
##kul
pip
korong
társai
kidolgozott
##,6
index
röp
búcsúzott
##ty
##anne
temp
##ombati
szeme
elsziget
##essenek
107
##eller
##ásról
##izálta
küzdelm
##mérkőzést
galaxis
termelő
kialakítása
##oyd
##falak
jelű
megfelel
##onta
lipcs
megdönt
megnyer
szerelm
##török
good
testvérek
##ezze
song
krakk
ideális
##enziós
tanfolyam
##box
xii
##völgyi
csatár
vonatok
##görög
betel
doboz
államt
kritika
területein
kedves
felfelé
gyermekkor
##világbajnokságra
barbar
sugárz
köthető
összpontos
felkér
kézirat
american
menekültek
##erdam
tucat
szenátus
raf
órák
fiaként
összeesküv
függetlenség
kisb
##nyomás
##talanul
leírása
##”).
musical
szegeden
fordította
hercegség
feldolgozás
lejtő
lányok
régebben
hangverseny
um
henri
moderni
sztálin
oldalára
születésű
bút
válnak
aranyérmet
festőművész
##ds
##ibi
tő
vidám
queen
lennie
lövedék
sn
nord
ruszin
kaliforniai
fejed
testi
zeneműv
##sea
elit
1995.
hosszan
##”),
zsó
tévé
##ántúli
fizetett
plébánia
élettart
##fejt
1999.
##játékos
eredményeit
##akra
##fifa
109
felépült
demokrata
belsejében
javaslatára
but
##műsor
schum
jövőben
uralkodója
##ieu
##ajtó
bin
guy
1903-
igyekszik
##uda
utalnak
lineáris
##1).
1986
istenn
kísért
eff
kozm
##közben
##sejtek
kibont
névvel
rajongók
átszervez
tárgyalások
##17-
##cin
##ukon
##futó
##kant
non
##espeare
kötete
hiányzik
követték
északkelet
##umentális
náci
páncélos
hiányában
uralkodói
algoritmus
##kapu
##örzs
adatt
nyugod
megrong
munkások
röviddel
##oke
wr
##agen
##lottak
gáspár
megbízott
##öb
hart
résztvevő
##jean
##ister
caesar
cselekv
részleg
kezdődtek
erek
régóta
világűr
elhal
##repül
szigorúan
főszereplője
jö
őslak
művelet
gyakorló
ml
##jául
##aring
moham
hódolt
másodlagos
eliz
sing
téve
selyem
tend
inváz
hátter
célokra
példányban
##énk
kob
táplálkozik
##1%
##jász
jap
tank
előkelő
előadást
nyilvánította
##ugor
##levél
##nehez
üdvöz
éh
##iszk
##loire
karol
uniós
épülő
délről
elágaz
meggyilkol
##nic
integrál
##inél
##koron
vlagy
kamara
sámuel
1902-
menetrend
##oon
##eges
nagyméretű
##oszlat
közzé
szimp
##britanni
apostol
kötetben
##wer
118
##vidéken
dupla
találkozón
##sim
franç
megmarad
elődöntőben
##hit
##jaira
sújt
hunyadi
maximum
kialakulás
átsz
baráti
közúti
próbált
##csöv
valamit
angliába
skandináv
##cél
képe
1888-
tölti
gravit
emelték
levelei
mutattak
##ule
heart
krom
hindu
andrew
szövetséget
rács
japánok
egymásra
technika
##,8
1876-
1916-
infrastrukt
cu
spl
##számban
családba
elemeket
települt
szakaszában
láp
méteren
örökség
bö
##ákos
tin
##ancia
őszi
csepp
memóri
felszínre
vezetését
ellentétes
##agram
adag
beny
minta
center
rendbe
betegek
földrajz
nyugalomra
irányításával
##itások
bazil
megalapították
##energ
##gart
muzs
vajda
betűkkel
esterházy
##hof
##asztó
##nyelvű
vélte
nélkülöz
##helyettese
városokban
##yg
are
##evésbé
1997.
örökölte
kereskedők
köb
sírja
times
étkez
eredményes
##éf
roman
szállod
elégedetlen
csatlakoztak
fennhatósága
##igen
gyém
##oztatták
utóbbit
##britannia
jelentés
támaszkod
megtámadta
összekapcsol
##övő
##igazd
ismeri
érinti
hatalma
viszonyok
##tétel
arad
havas
turisták
lehetőségét
tekintették
##lé
kiszolg
birtokába
##ájer
sha
jacob
##etéssel
igényel
guszt
polin
##nevét
falv
##szabadság
egészséges
##ápa
jelentőségét
##lati
stra
nagyság
dance
határolja
fejlesztette
##dísz
1898-
hamburg
gondolta
##játékvezető
mátrix
##,7
##negyed
főnév
izraelita
kecskeméti
##ázza
##oszex
bécsbe
prefekt
##épző
java
bruce
soproni
##atai
ferö
group
komment
##készlet
mozart
okozhat
túlzott
##káp
og
châ
##vadász
végét
csecsem
##lit
##tári
gott
##station
##ériában
eléggé
feltűnő
##bog
balti
##rendelet
következménye
##195
1851-
##ájaként
támasz
##–2-
sky
álom
segítő
ec
##ógus
##erjed
etióp
szerver
biztosan
állítják
kihasználva
##sír
rendelkeztek
rett
termő
részek
##áti
##kedése
képessége
##4%
##izz
##emet
litt
vonul
csavar
magyarázat
alum
jogok
##művészek
fájdalom
baloldali
##df
##utc
##annes
nyugdí
kedveli
##vard
túr
érzi
gömör
ž
##igi
szp
1987
kent
rovarok
önállóan
shakespeare
##minden
becsap
kétféle
ih
out
harcban
hercegi
testtömege
##rén
hel
műtét
családnak
csapatának
walk
marsh
részből
##asztották
jogszabály
helyezkednek
1873-
##iterrán
lőszer
helyben
szereti
asszisztens
településrész
##torn
piet
dénes
aktívan
felvételt
felfedezés
tekintette
alfred
sárgás
övezet
##ozhatott
szimfonikus
##atú
1919.
kínál
naptár
étterem
szeretne
kórházban
kölcsönhat
montenegró
doug
dream
társa
leszáll
tagjait
stadionban
##bourg
fekv
szigetek
kettes
filmrendező
##ügynök
müncheni
hadsereget
biztosítani
##űvös
bást
csü
gaz
önélet
##csapatok
íródott
időjárás
##ante
táján
megoszlás
##sous
beind
felsőbb
##4).
##–196
füzet
##atainak
grammy
##büntetés
galéria
győzelme
##mély
díz
##éséig
nézett
kompozíció
turisztikai
##este
fig
##adását
faragott
feltalál
globális
nehezebb
fokos
##éseként
katonaság
fejlődését
##ókon
fejét
pikkely
torkolat
ash
szup
portré
vizsgát
vezetést
építtette
##sev
heid
szing
barátság
egyéniben
alkalmazható
kút
##illon
csőd
évei
##kolozs
##miklós
alany
nemsok
kísérletet
(184
eric
##lengyel
találunk
tartalom
##iói
##íciók
fat
regg
folytán
gusztáv
kérdése
szépség
szabványos
##éna
szemin
képerny
megoldást
##на
##albuma
##eztével
gyalogos
lebonyol
##bergi
hont
repub
partiz
##fáj
sap
##arany
alát
##dioxid
finnország
##kinek
1993.
vasas
szembeni
legrégibb
vmegyében
feleségének
megtartotta
##fen
bou
##ákhoz
szövetségesek
##fém
karszt
eladott
alakítja
##cho
előr
részein
legközelebb
##vey
nasa
72
##gárd
köly
sisak
xviii
árvíz
férjhez
szimbol
szovjetek
csoportkör
létrehozták
készülék
##arat
halvány
kevered
ferences
tüntetés
hál
jobbra
keltett
felhasználó
pályát
nemsokára
nyugatról
valóságos
szervezete
alkalmaztak
marosvásárhelyi
bővült
pártja
helyről
születése
##gráf
##otóp
mészkő
##technikai
hadvezér
helyzetét
##ovo
5000
call
##opot
##csere
##motor
1940
mini
##erty
bolyai
paleszt
amerikaiak
emlékeztet
elect
isztamb
seregek
sát
repült
őshonos
megkönny
folyóiratok
tanulmányok
felvett
tavasszal
##19-
nam
kristó
lincol
mutató
toront
összeom
gondolkodás
nyilvánították
oroszországban
##agi
##etein
1895-
awards
indító
prédik
##acher
sérül
antrop
gyűjtő
találja
befejezte
uralkodók
eseményeket
##ego
##afaj
##anitt
##ártól
##ődtek
geszt
mutatnak
helyszínek
megvásárolta
##sáv
vo
nagymester
##ésekkel
illesz
elz
apai
balett
döntőt
fejében
röviden
forrásokban
basszusgitáros
##jas
##bban
vízzel
##bán
##eto
##cikl
##opol
##japán
mezők
law
tall
felfedezett
##róm
##erdő
páz
1956
kapható
egységet
dokumentumfilm
##korú
gus
##változás
kormányt
alapanyag
állatkert
távolságra
ihl
céget
##áin
asp
##kocsi
##vitel
megtilt
állítás
108
hangok
bíróként
zászlóalj
##ílt
cour
nyelve
műanyag
megtalálhatók
##arit
##alföld
death
indon
határozta
templomok
nu
##osak
vizes
##ségesen
némileg
embernek
epizódban
győzelmét
##rakét
erőt
svájcban
filmekben
amelyekben
1915-
hívei
bennük
bronzérmet
földrengés
kúp
##érdek
enyhén
katonái
elmenekült
feltétlenül
##san
rot
1881-
névre
cikkei
órakor
beszélő
tanácsadó
1938
kated
domborm
kezdődően
1861-
ukrajn
vonultak
érettségi
##nu
1984
szerény
egyszerűbb
professzora
##ósz
##reszköz
megítél
börtönbe
��������
##bit
##ovszky
##személy
metrop
világhírű
folk
egysége
felhagy
jegyzet
bost
gyártás
megsemmisült
megállapodás
##aria
köre
tünd
##elemek
##tengeri
moderniz
tartományi
énekel
1982
autók
zemplén
megfordult
##ürich
roland
űreszköz
túlságosan
##hód
lug
##entúl
krím
salz
alakját
fronton
szerzői
stockhol
ugyanitt
##sm
##ione
##élte
teli
szokták
tizedik
##onya
##osztó
edzés
kívánta
##egyesület
beb
##ennes
##other
kitér
alkották
kétségbe
közgazdasági
##yin
hév
ejtő
pent
##térkép
ignác
csoportban
##ócz
1808-
házigazd
képvisel
##otel
aud
orient
hosszúak
##jüket
pert
serege
ragadozó
utóbbiak
bronzérmes
főgimnázium
megjelenését
##ove
kísérő
market
mozaik
képviselet
ugyanekkor
##hai
ázsia
kincstár
##özi
abd
lob
eredményeképpen
##űzet
jub
rómába
futamon
gyorsabb
életéről
lök
kapja
savoy
##álására
irányt
szóval
angolok
kiinduló
your
walesi
megtudja
##gróf
##őről
lévén
lakóinak
megenged
62
1942.
szicíliai
##űlt
##volt
##kísér
##éban
fokozatot
##útra
1985
logikai
gyermeket
##áter
##páros
csatát
feltűnik
szakközép
megrendezésre
##tol
mú
kas
koszt
elemei
bh
zenés
pontok
##ais
##pill
bort
funkcion
##jin
##ril
fosz
normális
alkotásai
playstation
játékvezetőnek
foszt
csónak
##iskolában
dolgozók
##oe
##árseg
brazília
szereplője
nep
nyik
költői
területéről
feltűnt
eljutott
nagyváradi
századra
tisztséget
törvényszék
##ather
találni
fellelhető
nemzetgyűl
neut
1891-
fellázad
elkövetett
##uárd
monac
batman
##erre
1943.
angliai
sorolják
##hem
##szák
zichy
hangul
évekre
frissen
keletről
értelmezése
##dim
##rock
##oktatás
ismerős
elveszítette
##8).
##onso
andr
##ítania
életbe
elliptikus
tengeralattjáró
##dar
##escu
bízták
kávé
felold
megszerzése
##jeit
tűzte
operett
##bour
##nának
lever
##ozattal
francisco
alkalmazás
##észak
1956.
tanácsa
##kolozsvár
##mam
##nemű
vára
1892-
deleg
folyón
határon
mérgező
szentelte
##tük
édesap
ilyenek
bejárata
méterrel
támogatását
andrea
rokona
zajlik
##ual
tégl
##ezs
##edése
felem
elejére
fogadott
életrajz
kapitánya
50-
##alapú
##annak
##történész
jezsuita
visszaszor
##egi
esti
penn
anyak
broad
elvon
leégett
tisztel
##rox
##owski
megöli
lábánál
utcában
folytatták
igyekeztek
plébániatemplom
##kéz
##udzs
##wald
119
squ
árva
jókai
kezét
községi
mindazon
tanárseg
félsziget
oz
nincsen
weboldal
informat
iparművészeti
1998.
utazás
szerbek
délszláv
alkalmazni
elismerést
##ка
##ten
köp
diad
##atiszt
pestis
visszal
védelme
módszert
áldozata
ugyanabban
##...]
kicsiny
bukaresti
thr
élen
kuruc
társas
megszabad
végződött
##bury
panasz
felvidék
színpadon
belgr
##ításban
nyúlik
feljegyzés
házasságából
fló
1940.
mozif
trónt
közzét
sebessége
##ege
##rág
jogosult
hatalomra
megpróbál
##modell
##sák
alan
kimer
hivatásos
##kér
pit
##adásával
ütközet
indulnak
106
##lását
dean
##termel
hűbér
alaprajz
védelmet
kiadásában
122
##ártya
1976
frakció
legutóbbi
elrendelte
ral
1975
szerbia
létesített
családjának
köd
elűz
klím
spin
eduárd
##ikt
kok
tojó
##ations
megismert
##ítosz
##berend
hozzák
etnikai
barcelona
igazgatóság
fórum
harris
##env
##éma
essz
foot
##itását
##alisták
végeredmény
1830-
váltó
##ológusok
légitársaság
##annel
1979
admir
pásztor
gyöngyös
##has
manő
fenyő
elsaját
státusz
##stadt
torz
##ográfus
##roid
##tánc
##iszta
készülnek
sah
##átora
##ességek
kutatásai
képviselt
információt
közgazdaság
technológiai
##bél
1996.
zajló
spirit
folytatja
hand
dagan
sikerét
túlnyomó
legénység
adót
##atokban
##izációs
balkán
békéscs
##antó
emlékét
fennhatóság
kiír
davis
hagyták
játssza
vetette
ókorban
alapjait
tagállam
60-
##felől
sugárzás
családtag
környezeti
##éné
cha
dum
##émiai
##éziai
küzdött
megírta
izabella
vizuális
folytonos
##lény
1872-
amszt
lakta
párbaj
részük
##kiállítás
háborúja
norvégia
94
##márt
##kedni
##reform
termés
látogatott
##cer
##rew
##olas
##orny
nan
1950
mozgó
##fokozat
kandid
ismertebb
##to
ifj
mun
kecs
mach
1869-
elküld
harckocsi
magyarnak
találkoztak
##déli
network
tanulni
négyszög
felbom
számolt
tekinti
butt
ober
patt
csökkenti
törvényes
felvételek
megközelíthető
##zh
értékek
bú
##vart
##adási
patk
vasú
balogh
##értékben
parancsot
többszörös
gle
##szkóp
1901-
lezaj
kevéssé
debütáló
filmművészeti
70-
magasan
##izmust
##átrium
ifjabb
ügyvédi
példányok
műsorvezető
htt
zürich
munkásságát
##mid
papi
pass
##szeben
filiája
ismerik
##gan
iraki
elrejt
ugyanazt
##csú
##ékos
##azott
##koreai
1939.
napra
sorsa
carlos
##ич
eperj
##disz
tany
apoll
fazek
studi
megjegyzés
##ácia
lac
legr
örvend
korának
községet
megnyerték
##fc
rúg
démon
iráni
volán
mással
kristóf
lehetne
##adel
cav
life
gyanús
oktató
##20.
előnye
##források
tüntették
esetenként
##1%-
##nének
húga
parancsnoksága
prim
burkol
mérnöki
mérkőzéseket
megszüntették
##raszt
pale
central
bejutott
cserkész
jellemez
claud
borsod
októberben
##özte
##ukból
corv
1994.
anyaga
emberei
herceget
felrobbant
hagyományok
pc
gazdálkod
összességében
horthy
lényeges
##ációval
táncos
mercury
##esés
jegyző
részen
##fejlőd
csong
hadak
fedezték
védelmére
rendelkezésére
##aiba
##szis
##orlás
##ányok
##itkára
híján
periódus
szövegek
ellenzéki
##kt
##eno
##atja
##etsz
##ságnak
ismerjük
közismert
##ámia
##igény
##gondol
gomba
kiterjedésű
team
urai
körös
lukács
ünnepi
pusztán
hongkong
visszaemlék
függetlenségét
##30-
##dom
##éti
##ition
mentő
szerelmi
részletesen
kréta
egyedüli
adódó
szótag
mennyire
végrehajtó
##lep
##pír
##övetkező
módszerek
##fát
##kot
##obby
vác
##ánban
chel
elvis
példája
kialakuló
szerepében
segítségére
##rádi
horm
spekt
tervet
nyitrai
##szállítás
nyilatkozta
##olin
véges
kettőt
időszaka
elhagyták
láthatóak
kandidátus
készítenek
##sl
с
act
syd
ezekkel
eljárást
vonatkozik
szolgáltatás
##ezésű
népe
írást
marokk
megölte
ejtőerny
amelyeknek
##ни
##erseny
operaház
##mérkőzésen
nehézségek
utólag
fogadja
latinul
##uke
xix
ősszel
franciául
nagyváros
időszakában
haut
viktó
emészt
szállás
nevelkedett
##adják
percet
földszint
együttműködés
»
öm
##alálták
associ
bundes
németországba
##ósok
##tanár
##értek
élők
1894-
ágnes
nukleáris
ll
##elly
üst
kastélyt
tényezők
##kik
##hány
móz
márt
##atlanná
germán
tanúsága
alátámaszt
##tatja
##gyártó
##időben
utcán
optikai
központjában
helyreállítás
mom
babil
wagner
##őn
michel
kritikai
mennyisége
franciaországba
##–194
téma
végzi
tigris
##ézs
hatály
elemzés
repülőgépek
megismerkedett
##uci
fan
maszk
változtatta
tanulmányozta
##3%-
##feszt
pátri
alakít
mégpedig
rugalmas
##))
aus
×
##ozású
##tattak
életű
felkelt
fegyverek
kezdi
segíteni
összeáll
kancellár
teljesítményű
wy
##opor
sony
1884-
szállít
becsület
történészek
##ер
##esc
érv
írása
beszámol
közelben
neveznek
megérkezik
ideiglenesen
1983
##ska
1948
##mihály
##6).
##hosz
##prov
egyikük
indiában
sorolták
fordítása
tanította
##uld
##athan
szolgálta
találkozhat
franciaországi
sü
váci
valósult
bizonyítja
meghallgat
##iva
##lél
##net
végett
klinikai
állítani
joga
##felügy
lendület
szöveget
##ches
csan
dánia
szállított
##hárm
102
jimmy
kiprób
készen
újraind
##ender
witt
##atának
cégek
society
##rém
sev
liter
tartva
átfogó
ágoston
−
fűt
horn
skál
vász
ikarus
tekintetben
##epl
##közön
himnusz
ünnepség
halálának
külügyminiszter
kagy
dobog
témájú
tüzérségi
főszerepet
huz
meh
ébred
bibliai
##2%-
zenet
ingyenes
déd
gyap
havi
jele
##spanyol
műsort
közepéig
##eibe
##palota
piaci
pozíciót
pillanatban
##ósa
##éder
pán
east
mentek
fordulnak
##izm
##afal
start
száműzet
##dk
##flu
##orony
szobra
##ázsiában
környéki
önmagában
koncentrál
pozsonyban
elhatározta
rut
leop
várát
községhez
tengeralattjár
##9).
pént
1800-
europ
támogatták
információkat
##ülését
utazó
##szegény
feltehetőleg
##isp
fáraó
döntést
ezüstérmet
megnyilván
##ão
##uka
báz
1974
##afrikában
korszerűs
teljesítményt
gas
usz
belt
##ennégy
energiát
munkájának
##bled
900
##őképp
kísérletek
##őnek
russ
slam
1885-
sűrűn
furcsa
síkság
vlagyimir
##kont
ady
##hamar
##szövet
géppus
flamand
megépítés
kommunisták
ige
dicső
kaukáz
reformáció
szárazföld
##aru
borz
##úszott
1897-
hibás
tisztáz
eszerint
diagnoszt
##germ
##ogne
rej
##arány
##ști
kőolaj
amilyen
mondható
csi
heg
##kerek
brazíli
kibontak
befolyása
##,5%
szoba
akartak
fizikus
elhagyja
székesfehérvár
##essy
##záró
##észi
##ilágos
##évesen
1977.
nevek
akkora
halált
ulászló
továbbiakban
##ulja
hsz
1988.
akuszt
marcus
veszélyeztetett
##vát
##ovai
young
átkel
említést
maradnak
csillagászati
hág
kők
húzódó
beszélni
felszíni
világrang
hasáb
telepített
##wart
tenn
1946.
tranz
alumínium
közlekedő
elnevezést
1981
fiuk
serv
dolgozat
sorozata
aja
000-
szorult
##nyí
##kins
##formák
ellop
próbálták
mediterrán
##aitól
útra
##szállító
elhanyag
megemlék
ritkábban
módosított
##,9
90-
##álását
kifog
##ush
találkoz
irányítását
felújították
##aim
##etvény
kukor
viták
előtérbe
állattart
1878-
ferrari
kötötte
feloszlat
##enk
gem
tas
1973
beir
##ásáért
elnyom
idejére
városának
40-
1893-
navig
feltűn
albumuk
card
dick
kacs
##abilit
zálog
rendet
állati
elterülő
előrehal
kezelésére
##nőt
##táj
##bois
hűt
##éséért
gordon
házzal
képeket
kórházba
architekt
visszatértek
zseb
esper
jellemzője
##pot
##adók
##verg
megérkezett
vonatkozóan
fav
1968
jósz
elmondása
versenyzett
##úló
ts
ye
##szig
##rában
town
##lására
folyékony
bajnokin
kevin
évfolyam
##olga
kilométeres
kontinentális
say
járnak
visszaf
ellenfele
fúv
##iális
##dos
##reszt
feszt
hírek
tüzet
növényzet
osztályába
##építő
megjelöl
becslések
kazinc
keresi
magukkal
##tömeg
##érett
##állomása
megnőtt
viktória
szerkezeti
##get
elnép
járási
népszámláláskor
kiránd
megbuk
részeit
sikertelenül
chicag
bevezető
ajánlotta
befolyásolja
##gömb
illeszt
rózsaszín
karbantart
szeptemberben
cant
vulkáni
##vii
juhász
színészi
kosárlabd
pátriár
felsőfokú
összeállítás
##cif
[...]
sebes
elnéptelen
##éjük
##kezett
népes
díszes
gyarmat
énekelte
felállított
##lach
1.)
##oszóm
1840-
verzi
##izálták
##uralkod
eszter
izg
keser
elindul
kereste
vidékén
kapcsolatokat
##pton
hem
sugarú
bourbon
sereget
progressz
##árdi
##díját
mált
jelek
pedagógus
jeruzsálem
lakosságot
##odva
##épost
1977
nint
kötődik
nyíltan
jelzéssel
##óból
##ílust
brig
spar
arckép
felépítése
üzletember
tulajdonába
xv
##ulin
analóg
bevezett
##ilia
mennek
heinrich
készíteni
közlekednek
lé
well
bayern
prágai
tanársegéd
##madár
ákos
venez
partbíróként
##deb
brad
újrat
diósgy
columbia
##ador
barb
fölötti
kolostort
idegrendszer
kiűz
működési
##ártak
vasz
������
megörök
ténylegesen
flu
sín
hels
ahova
tetej
nátrium
mozifilm
börtönben
elkezdték
##ince
##úzió
kiür
palm
laktak
törvényt
autóverseny
##idi
##udy
##terv
borg
őrnagy
arisztotel
##ager
bang
vize
##ságokat
fantasy
manőver
ismételt
##hozzá
gyémánt
alakítás
##nig
##őke
##bank
cab
1969
##harmad
viszi
velence
megélhet
felállítás
##so
##bod
##hib
bea
hobb
##éjében
régens
##ávolsága
játékvezetőként
##tar
rádiós
temesvári
hollandiában
##kim
##klub
##ökké
##őrök
buj
##aurus
oláh
##selejt
light
france
univerzum
##lése
##urch
gárda
borítja
burgund
felmérés
színészek
szubt
szónok
##ject
autót
tábláz
olimpia
zalaeger
##szim
ther
ferencváros
feldolgozása
м
sov
stu
piar
kitörése
telepítettek
világörökség
##cr
falk
közeg
harcoló
innentől
jövedelm
működnek
iparos
akarják
helyért
##íthatatlan
repülőter
értelmezés
##//
350
rey
##ogató
elmozd
formájú
offenzív
megtörtént
##upa
nato
chelsea
mul
morva
szakadt
orvostudományi
tele
##lettel
1871-
készt
##színész
összej
hengeres
##196
##jou
##kodó
##úrát
##okoll
2018
##nemzet
warner
anyagokat
##ology
1960
##tatása
hidat
benyom
##gazdaság
elmélete
gyártása
házaspár
közösségek
mindenféle
0-
##ugró
sak
##eitől
##zatos
rena
road
##étellel
hetilap
nyitotta
balra
fejér
zenészek
gondolták
##orz
##házból
várja
##pedagóg
amelyhez
##char
##prím
jogú
enyhe
jubil
bencés
melyre
museum
oxford
mog
góllal
szolgáltatások
visszaáll
##szat
##ékben
bran
home
szul
walt
1948.
lépcs
megkér
agresszív
konferencia
munkatársai
61
##eton
##álási
ispán
nőnek
brüsszel
megtervez
véglegesen
dy
okozza
##ilárd
célú
stephen
##ebo
##áta
pasa
organ
##esített
##különbség
középpontjában
zsuzs
betart
merült
pártok
emelkedő
alkalmaznak
##ose
##vir
##gott
##iens
ard
##fekete
##henger
feder
instr
71
from
láttak
emlékmű
háttérbe
műegyetem
tárgyakat
történetek
játékvezetők
1978
diktat
listák
felgyújt
írország
csodálatos
résztvevők
##áskor
null
##filmet
homoszex
elterjedési
thor
teréz
megkísér
elkötelezett
##’.
##ront
##tem
globe
##csoportok
illegális
szlovákia
buszok
olvasó
ötlete
bosnyák
mélyebb
pázmány
kiépítés
interneten
##fontos
1882-
johanna
kifoszt
szerkezete
szerződését
##ols
##itor
##akból
##ünket
##icista
lincoln
találmány
főszereplésével
##ław
bef
avat
fárad
##eléssel
érintette
##′′
→
grófja
ajánlat
felvilágos
könnyebben
civilizáció
##onim
##üreg
##irányú
1889-
részévé
pisztoly
családját
##/1
##86
##gót
bű
##cker
##under
##alföldi
hangos
évfordul
sul
ugr
##örvény
aladár
karácsonyi
##://
##ódni
1914.
ludwig
ellenőrzése
##féra
veg
szorzattal
##31
inc
##ániai
kézi
megvizsg
egyszerűs
##är
##fried
anne
szty
kvantum
##szigeteken
megszólal
##itól
hátral
átadta
műsorban
vállalatok
forgatókönyvet
ce
##icum
##ifor
napok
##ozásának
jelöltek
legyőzték
ján
lau
##tatni
kelta
##etették
megsért
melyhez
visszany
győzelemmel
##ehr
apple
bánffy
fogságban
lad
luci
1980.
érvel
hatásos
hermann
megnyílt
szeretné
kitüntetést
elkészítette
##194
##arg
##álók
104
félbe
medve
tábla
vatik
##fiú
plaz
óbud
jogokat
jórészt
zsinagóg
##bs
##élő
nag
1886-
korunk
##enst
117
##nyira
##ograp
népdal
virágok
megölték
sebesült
edény
##mozdony
fizika
gyülek
luther
váratlan
melyeknek
hosszúságú
##kh
##árat
##plement
korrup
##aműv
##kozó
##abbak
térd
1899-
úttörő
leányát
kutatóintézet
##atz
##tök
natur
tradi
észrev
eltekint
##kövér
##ikából
hibrid
keveset
nevével
meggyőződ
szervezte
szerződtette
##iae
##evel
##szon
mhz
##áiban
ront
végző
esetek
tanszékén
##bro
##vív
##evics
##recht
1200
kifejt
utóda
fejlődő
életkor
komolyan
münchenben
tulajdonsága
##forgalmi
helyenként
tizenhárom
jun
##lehet
lefoly
evangélium
fedélzetén
1939
##álkodás
fenyegető
kialakulása
##oan
gúny
cooper
horror
rejtett
szabadt
nagyszerű
##xi
##ento
##jéről
1972
1875-
albumról
rendelte
##jelben
elhang
elnökévé
stúdióalbum
megerősített
##fajt
zárták
kitelep
bertalan
hozzátart
ismeretter
csapd
bankjegy
szolgálatba
**
cra
spr
girl
érzés
keverék
várostól
sajátosság
többségében
foglalkoznak
##dsz
dny
derek
florid
számokat
1971
1972.
mítosz
szintje
jeruzsálemi
##rud
##enzo
egyéniség
nyilvántart
##ht
1942
##hetőek
zárult
fellépő
tisztán
európába
síremlék
##uban
##ságuk
public
művészt
tengerparti
##hop
bis
200-
shar
vonta
##elméleti
döntése
studios
hatalmak
elkezdődött
##etz
eladta
piacon
államot
disszert
unitárius
bemutatták
kron
lövész
elszenv
miniszteri
társaságnak
##elői
##követ
kraj
##ultabb
szemle
ellenben
hűvös
vadon
előrenyom
eszközöket
navar
darabja
hónapban
látogatók
párbeszéd
tökéletesen
##kény
zsófia
csatornán
##óna
##ière
##átta
1949
1806-
hettita
football
mindenütt
összefoglaló
turb
texas
helyig
honvédelmi
megerősítették
egz
reh
perm
négyes
moszkvában
fegyverszün
kiválasztott
>
##ome
tornát
szilágyi
marketing
##fejlesztési
császárság
diplomázott
jour
radi
sora
salamon
zeneszer
(�
media
##ítésben
közepe
legtöbbet
megszilárd
jelentkezik
szakemberek
##aty
##lót
nür
írója
őrzik
fókusz
elfogták
##áda
##ersey
roth
leírt
##hagyomány
szabálytalan
##over
vitorl
spanyolok
zeneművészeti
##arte
##eper
léz
##halom
##alatti
##izátor
bobby
fűszer
bemutatta
támogatása
újjáépítés
##kereskedelmi
luj
zab
1970.
sound
utaló
köszönt
fivér
összhang
##pop
##asse
##fejű
ekkorra
követik
ry
##ebel
##ottan
##ágneses
sorsol
klubmérkőzést
##ste
##ojuz
leszer
profil
jelenléte
в
##–14
talp
1866-
kolumb
szervezeti
szövetségének
##may
##ráns
##áron
töv
##ezője
##palot
bűnt
cári
fogalma
várának
interjúban
meghatározása
##aph
##ejük
##koló
estek
általi
forgatott
szolgálja
regisztrált
##jáig
sekély
kezdenek
érdemrend
emlékeztető
adós
cenz
veter
##akadémia
felnőttek
keletkező
fegyverzet
megtalálja
érdeklődés
##odon
121
gib
mozi
átlát
özvegye
##munkatárs
különleg
megtalálták
##chy
##ilóg
dud
blue
##íttatta
máramar
indiánok
javasolt
egyenként
cry
##press
téri
##óceáni
##öngész
vámpír
hajtómű
konflikt
szakaszt
##new
cher
kánt
nedv
1986.
próba
egymill
orvosok
jelentettek
telepítették
##hegyen
##kanizs
##ságára
látva
turnéz
robbanás
tum
gyári
helen
májusban
legalábbis
uralkodásának
##hur
mtk
##katon
1982.
beolv
derék
megíg
rajzol
műfordító
##ju
##eder
tomp
1883-
1887-
rezid
dramat
faktor
ehelyett
lapokban
nagyvárad
##oven
mant
rain
1969.
nyitó
fiával
kalocs
miller
táncol
kormánya
##än
1943
sztr
tünetek
felhábor
nitrogén
előadások
orbitális
csapattárs
hozzájárul
eredménnyel
##egl
##fit
##rick
riz
tízes
embere
termin
hulladék
keretein
kontroll
területei
megnevezés
##gyá
gró
elérték
##sorozatot
címzetes
szétszór
rick
szomorú
különbözt
##ts
au
##bell
##szobor
szesz
kistér
hódítás
közéleti
1957
##helyén
útjára
székesfehérvári
##0)
##wi
veget
írják
belőlük
cikkeket
megbeszél
1919
ring
sebast
strand
sydney
nyitották
felemelked
##inz
##,5%-
##átlan
blok
vacs
megal
athéni
albánia
nyugszik
elizabeth
##55
##esítő
##ésről
denev
típusa
párosban
visszavág
unokaöccse
(?
##óhoz
oreg
férjét
szatmári
betegsége
ellenőrző
osztályba
##afa
116
##odnak
anime
vallást
##apa
dév
doktora
délnyugat
előkerült
hajtottak
menedéket
katedrális
vállalkozó
helyezettje
##itest
gyep
legel
generációs
kerületében
##emen
##adnak
1879-
borított
szolnoki
hallgatók
szabadult
bac
heavy
értékét
felfedezte
##oa
szkít
alföld
altábor
különbségek
##fai
##opl
brut
hősi
júlia
rózsa
üdülő
konstrukció
kült
tervét
végtag
richárd
rolling
##vándorlás
kisebbség
lombardia
augusztusban
ecs
##ázsia
1967
##egyenl
##vállalat
legelője
oktatott
idegenben
mindazonáltal
##hajóz
1848.
1984.
szűnt
futamot
fennálló
protokoll
##urd
##betű
##ccsal
##ódást
cross
listája
szélessége
egyházkerület
pom
ujj
##emann
down
adjunk
anatóm
templomát
tetszőleges
##wick
dikt
belát
törmel
evolúció
ugyanott
##opt
1950.
hatott
könyvét
változtatták
szon
##asorozat
címvédő
horvátok
választják
##tures
aláírt
margar
nemzetköz
##engő
##körös
amihez
fazekas
lakosságát
##ratív
mclar
csakúgy
kísérte
hagyaték
északnyugat
##ódva
##oznia
fire
motort
zsoldos
kiválóan
rendőrök
megőrizte
##ideg
dolgot
szervek
versenyeken
visszatérve
##ród
oszl
alatta
import
tanulók
negyeddöntő
##oro
##odni
hívja
koronát
védjegy
hétköznapi
szenvedély
fejlesztették
##idd
##ido
##piac
##uknak
fall
cambridge
dolgoznak
##aktor
cserép
schumacher
##yá
whit
1715-
okozó
vízbe
formák
élőhelye
fennmarad
időtartam
irányítás
vezethető
állambeli
szántóföld
##cit
##igo
81
hend
elmaradt
##bajnokságra
erősítette
hangszerek
##adar
írásmód
eredményez
dinoszauruszok
##pit
##wich
1987.
elfel
gondot
##korábban
##számítás
szavazás
tervezés
felhasználva
##ets
##éren
##ürke
sher
1849.
skóci
kifejlőd
léptették
legelterjed
állattenyészt
beton
tünet
olvasók
gyarmati
hatáskör
kivégezték
lebontották
megnövekedett
feltételezések
п
##ődő
tájkép
barátnő
menekülni
mintájára
növekedése
vélemények
oroszországi
##éit
clm
paz
ciprus
métert
filmjében
##szentmiklós
##urak
114
cli
ord
##hesse
partja
járvány
érzelmi
novemberben
területekre
##lői
##ásért
1985.
elmarad
növelte
gyengébb
nyikolaj
többségét
##bot
##jós
##haszn
isil
erejéig
kisebbségi
vét
atyja
lények
állkap
elejéig
kifejlett
##zenekar
rendre
alispán
magyaros
szubtrópusi
##cki
céh
nándor
szojuz
számol
trónon
honfoglalás
##esik
10,
cham
marvel
becsült
kanonok
tizennégy
bevezetése
világháborús
##ières
11.)
##uláció
pappá
otthona
lengyelek
##aug
eis
arsen
helyek
személyt
##bu
##sas
##tábor
soul
dorogi
előadók
középen
születési
##ario
##ution
dózsa
körút
becsül
ketten
vontat
marsall
stúdióban
who
andy
##esztett
##vonalat
meglepő
végezni
hódoltság
csapattársa
csíp
soly
nevük
lelőhely
venezuel
szórakoztató
##elo
##inki
##ozásban
légvédelmi
álc
##finom
otto
vonták
végzik
egyesül
vajdaság
##kir
##vre
##anként
##bajnoki
készítő
lázadók
mélység
sorozatú
képviseli
##antasztikus
teny
tárgya
szektor
önmagát
forgalomban
##erül
##körül
##stílus
##szkrit
tanít
johnny
megmér
hallgatott
##átra
stil
1976.
fűződ
súlya
##testvér
viszály
felvásár
királytól
munkanélkül
öd
gut
##átony
lánd
##iszent
előter
nemrég
stájer
ékszer
bosznia
hatások
színdarab
##űg
abc
leó
##odása
1947.
hangzás
science
tömeges
jelentetett
lehetőségek
következőket
##amen
rendi
egyiptomban
##írók
petr
sorol
mentes
amellett
felkeres
viselkedés
dék
##liget
##stone
##usnak
cipr
mend
pott
1868-
macska
követelte
létrehozni
folytatódik
##raz
ton
##eztette
alrend
szikla
bevezették
szakszervez
2.)
hitre
időjár
##isztelet
alkalmi
apjának
alaposan
pis
ikon
számott
hadjáratot
létrehozása
acad
őrgróf
##versenyen
állomásozó
##ias
##ofil
101
##átust
##mechan
##györgyi
galamb
##gazdasági
közepére
rosszabb
bármelyik
meghaladja
##88
dave
illés
ifjúság
portugália
ja
##okká
zomb
kijut
space
##ozódott
eleven
austral
londonba
vadászat
elképzelhető
##özön
##izálja
1968.
tilos
modellek
hősök
##áik
##edes
gell
utalva
christop
iskolája
ismerete
tragikus
beszélgetés
élni
##afrika
##ásánál
billy
docens
magányos
##aly
##ivár
##vani
kifiz
alonso
férjével
másodosztályú
magyarországot
##pál
csőr
dalát
radar
tömegű
zavart
védelmét
tanítóképző
##ape
##iró
##ener
##özös
cond
bárki
gyújt
közöl
korszakban
labdarúgás
valószínűs
##kiadás
1978.
alfonz
castel
szobrot
##edni
##mand
##elleg
##szesz
neje
1874-
erekly
konzol
vizsgálta
dalfesztiválon
##77
##enna
##jármű
(179
elcs
##ésekre
great
szóba
veron
előfordulhat
természetben
##enza
1946
elav
elzár
teremtett
köztársaságot
dús
1981.
összegy
vízilabd
eredményét
szolgáltak
felhasználók
legelterjedtebb
tus
feud
elment
pictures
résztvevője
játékvezetője
##váry
river
##bíróság
vélték
órányi
mohamed
##pt
##orr
##endi
expressz
forgatás
bevezetett
érő
1949.
nulla
eszközökkel
szombathelyi
##osh
##rátor
hangy
lakók
massz
mindezt
diplomáját
kíséretében
##ough
sid
kisfal
vágány
##asztotta
műveinek
egyetemet
évtizedekben
kazah
útnak
képező
kétszáz
lakatlan
##szeretettel
selejtezők
szerencsétlen
##iet
##szarv
audi
blan
támadta
válaszul
vízszint
comb
tüsk
##szerepl
##veszély
szerelvény
fája
indít
tavak
kitölt
csillagász
##cirk
alm
hms
##roham
tömb
elsők
falai
tromb
fantáz
nyílás
polgárok
részleges
rövidítése
tartományok
##hil
##yes
##...”
##kupát
##shire
##etőleg
elkob
díszítő
stílust
##/0
##napos
díja
hatt
mózes
létszáma
nagylemeze
##edve
##mász
ful
rio
ajax
bolog
főpap
medit
országból
együttesen
kormányzója
pszichológia
##fák
beau
görg
eleget
meghoz
##hegységben
feltételek
##oku
1979.
képét
áruház
rendeznek
ügyvezető
keresztények
következőképpen
1938.
látják
varsói
külföldre
harmadosztály
sr
felelt
##hadsereg
végrendelet
##6%
##arend
##elius
##nevelő
kábító
katonát
viszonya
##gang
fle
##elésre
##jabban
brook
##feletti
absztr
ismétlőd
populáció
kolozsvárt
##ats
##erin
ernst
híressé
marshall
folytatni
jura
oldalt
előfordult
##prod
vaz
engedélyezte
nas
búvár
újonc
félkör
felfigy
oklevelek
##mu
rö
##pszich
levág
##bab
##haz
zap
cerem
cikket
szerelt
barcelon
főosztály
halálával
felfedezése
vás
##átort
##ítendő
megform
##éry
őse
##egylet
kódex
ellensége
közgazdász
beiratkozott
##orp
##hail
##senek
nagyk
pokol
püspöke
pszichiát
labdarúgást
##gye
##ősköd
krónik
tollaz
tekercs
ünnepélyes
##áry
##champ
##kincs
##tábla
(180
http
##szállás
samuel
fejezték
rendszerét
92
##endo
##enko
##ilatk
csók
alkotói
szlovákul
##syl
83
##öves
##ransz
1964
lecs
emlős
főnöke
romboló
pályázat
kinevezett
élvonalban
kvar
newton
jegyzék
szigete
vagyunk
működtek
##hip
ci
##uhant
végi
##uttgart
dicsér
izland
jelenetek
irodalomban
##sar
##elje
bik
típust
szigetre
növekszik
állatokat
halom
pihen
hűséges
melyekben
szakirodalom
9,
##eyer
hil
##hotep
##vonala
esélye
osztott
labdarúgók
otthonában
szorgalmaz
megszerezni
##eppe
##omán
borv
imper
##eus
##vágy
abbah
color
magány
időmérő
megmenek
ellenkező
játékvezetői
##ablak
##parti
4000
that
1983.
belek
labdát
romjai
viking
sportol
tatárok
mészáros
##pin
amb
fűr
gel
tul
##csomag
1957.
literes
létezés
##hős
##ebek
sert
budán
carey
vendégek
mellékfoly
kiállításon
pontosabban
##non
je
##ache
##kezelő
grant
fogság
megtör
eltekintve
jelenségek
alkalmazkod
kénytelenek
jelenlétében
##7%
##gl
##umont
hiszi
koppen
stanley
alárendelt
számítanak
legnépesebb
rögzítették
о
dag
lujza
dandár
műveket
fedélzeti
szabadtéri
titokzatos
##ema
##kur
##abor
##okos
##omit
malm
lerak
corpor
mészár
fejeződött
holtverseny
mindenképpen
lie
tojás
kérték
szerető
alkotások
nyomtatott
##uszi
##iumot
erik
##ulások
##éseken
kötél
keresztmetsz
1974.
tévés
szamos
fennsík
jacques
népszerűsége
##’)
seh
tál
##marne
lázár
szisz
szétt
under
futtat
hajlás
millen
##ал
##úró
tróf
azonnali
kárpátal
gondoskod
merénylet
##öző
##apol
kőt
##endők
gand
aradi
máshol
helyiek
szürkés
találkozót
ábrázolása
decemberben
ef
abu
lil
elmes
forgatták
jelentésű
előszeretettel
##imer
103
bón
##kilenc
extra
farka
eloszt
képezik
nyerték
veszélyt
hadseregben
találkoznak
##igan
##állyá
jogait
ponton
szakma
térben
nagyszámú
korosztályos
sváb
##munkás
##evesebb
kiskun
csontváz
miskolcon
elteltével
környékbeli
##zéssel
1917.
1967.
oszlik
többes
ösvény
bosszút
nyomozó
temetés
gyártási
mentális
városától
leszármazottja
##ces
##ánja
küz
fivére
megvan
takács
kinézet
termetű
beszédet
dolgokat
németnek
változást
##vid
##ieux
metaf
újdon
##kutatás
felújítás
dc
##ekor
rib
���,
racing
mindenek
leszámítva
nagyszeben
centiméteres
evez
lant
##aszent
becenev
nevezni
hivatali
némelyik
ismeretes
elérhetővé
előfordulnak
végrehajtott
##ige
##avat
##endorf
##filozó
$
makk
moon
menni
szard
kavics
virtuális
részecskék
##yth
##üller
##mirigy
##orvosi
kivív
lemeze
##egyszerű
indulás
munkáit
##észettudományi
##dán
##szenek
soron
jelmez
napóle
élvonalbeli
##gör
##teau
kőből
linux
veréb
hercegné
hegyvidék
##meleg
beik
csik
herc
##viteli
közpon
üzembe
perccel
prépost
bölcsész
szovjetunióban
##99
hul
##olvad
győzte
húsvét
baranya
bulgária
bővítették
kristályos
szerkezetű
##cseh
##állat
##éskor
biztonság
helyzetbe
sorrendjében
##!)
vétel
jönnek
évkönyv
teljesít
gyártották
egyházközség
hú
##ettet
12.)
hugo
nyál
ősei
##kultúra
csúcsa
little
depressz
vezérkari
##aft
-,
rose
eredő
olcsó
lázadó
nádasdy
áramkör
amerikába
megbízást
ábrázolják
progresszív
költségvetés
##aye
##távol
körm
##állító
jubileum
association
##ökös
##indulat
##számmal
megrag
nevelt
illeték
andrássy
áprilisban
előkészület
teljesítette
##8%
jü
szű
1963
fogalm
versei
szentend
hercegnőt
dokumentumok
##otte
boys
parton
románok
sportoló
indították
ólom
búcsú
sarah
intenz
krisztina
rók
##óniát
torin
milánói
megépült
nagyságú
hasábjain
térségében
##hatóak
völgye
##szövetkez
rekordot
bűncselekmény
líb
##anyja
##döntők
##zettel
karint
##tulajdon
maguknak
frankfurt
végösszeg
birodalmat
felismerte
##iri
##ize
##szu
6.)
vesztett
szerezték
beszterceb
nagymértékben
##hul
5.)
nel
##afehér
vértan
iskoláit
éghajlata
kezdetektől
szervezetet
93
##vonat
1849-
1964.
kádár
vessz
lehettek
találkozhatunk
roy
##hosszú
eszper
chicago
##fontosságú
fejlődési
tartalmazta
gn
ges
game
##naggyá
heter
fogoly
julian
karának
gyakrabban
toy
1859-
liturg
rejtőz
domináns
völgyben
használva
figyelhető
molekuláris
##wan
beg
##lotte
13.)
manga
régész
irodalm
részeket
szarvasmar
##bay
##kút
##abiz
esc
sac
15.)
bogy
camer
manip
rangra
patrick
republik
mezőváros
teológiát
megkezdték
##85
##mark
amm
##kínai
##tatják
szövege
fogalmát
forintot
júliusban
nyitottak
rendszerű
identitások
biztosították
##iója
lán
poh
##taine
##adarab
vezérőr
szervező
szerelték
parancsára
feltételezett
##cai
8.)
erőket
##artó
##borg
##itim
hero
szud
vand
1865-
verte
jersey
##4%-
behív
célból
izotóp
alkottak
láthatjuk
##als
##roy
##vák
(=
##abbá
##gyöke
időz
alice
címén
barátok
mennyezet
kiállítása
alkotmányos
##ble
##lem
##vaj
82
##aráb
##orient
feles
church
hátvéd
##bn
four
sötétebb
könnyedén
tulajdona
nemzetközileg
ay
##nyik
##ásáig
gius
bereg
átnev
feltárt
##hetetlenül
tradicionális
elnyer
határai
lázadás
működés
mandátumot
wim
##ésétől
számuk
##mozgalom
##ple
##ück
##arján
##ószer
hugh
rába
perig
valak
memória
johannes
értékelés
különbséget
##udós
fát
herny
hozni
eltölt
gyűlöl
kikapott
tartalma
ártatlan
unokatestvére
##ikán
##néven
24.)
douglas
##született
aragóniai
##ojt
kérdést
##ος
##ontól
háta
állni
mondván
művészetek
központjától
használatával
svédországban
μ
pes
wür
##uszok
##ulmány
1863-
felén
kertek
művének
stewart
felszent
szapolyai
gyorsabban
fj
##ouch
##hallgat
apollo
nyelvtan
nyelvész
támadása
gólkirály
##amo
##inát
zsu
flav
##inburg
igazol
használó
kerülete
ásatások
mindenhol
megsebesült
##zan
##ségében
erőtelj
##dimenziós
osztotta
betöltött
választásokat
##esetre
kihird
osztrákok
szerveztek
feljegyzések
hop
##eraut
##orral
##uguay
##ektora
##listák
elhár
külváros
##ship
cáf
20.)
érem
##jeinek
átigaz
helyébe
nehézség
elképzelés
ütközetben
##nők
##udat
álm
1965
sort
maced
susan
rendezik
dinamikus
rehabilit
valóságban
##95
##mn
##stúd
ont
elkap
emléke
kiszár
relatív
fejlődik
minthogy
kolozsváron
barlangtérkép
tord
##harmon
1864-
1920.
locke
akarat
klubot
semmis
british
igazolta
udvarban
ütközött
átmenetileg
alkalmazásával
##-2
##ène
uss
leendő
miatti
helsinki
isztambul
ragaszkod
rtl
tiv
##korea
gyur
class
brassói
távolabb
szélsőséges
felszámolták
bass
bírt
1971.
végbe
##atlanti
fogott
növeli
anthony
korától
reggeli
tagjának
érdekelt
százaléka
törekedett
szépirodalmi
##quet
mász
kézik
jószág
költők
##könyvtár
mechanikai
##abíró
hajón
grófnő
némely
szóban
tekintett
tápláléka
##uto
űz
##élés
fai
19.)
##enciát
vitat
postája
megadott
megtartott
összeállított
7.)
9.)
##ómunk
##üknek
1975.
carol
észlel
előnyös
közélet
miniszt
birtokát
eloszlás
provinci
gyártottak
##xx
##ев
##erőt
##–190
ian
##front
28.)
fölény
fordítva
egymásnak
jelentést
tartózkodó
fk
10.)
dark
gépeket
intézett
jegyében
##félek
##hassák
finál
##ésekben
renault
fosszilis
ismeretek
kinevezte
felekezeten
évfordulóján
##/200
hám
##ázták
mall
##orszám
dzsessz
##selejtező
institute
szerkezetét
howard
arsenal
formáció
geológiai
kategória
népszerűvé
használatban
##omot
##ttől
utódai
hónapot
afrikában
kölcsönös
fejlődésnek
##eren
##illo
2-3
4.)
##rahám
apog
lelepl
megrom
savany
fizetni
fogyaték
vetették
keveredett
polgármestere
##érz
##enda
kla
##eznie
##gener
##érzék
##ítésű
fényt
##kevésbé
mérleg
megbecs
repülőgépet
arisztotelész
##ernek
##véért
kurd
mario
vulkan
egyéves
1961.
1965.
szivár
színre
megközelít
összeházas
királyságot
kó
atya
kenyér
elérése
fajtája
beválaszt
birtokait
tc
kimenet
eljárások
mexikóban
##magyarországi
##kora
hod
leo
##ácsol
1966
szop
gazda
padló
zsell
##olaszul
felker
vízgyűjtő
mérő
pihenő
ügyében
##/4
##jaik
##pent
##ping
gun
23.)
gumi
hírt
1787-
mulat
##egyedik
##szigeten
lakóház
tartalm
változását
megjelennek
##etl
##esben
##ondon
18.)
kara
mort
##emelet
folytak
földbirtokos
elnéptelenedett
szerkesztésében
##iew
lj
##inea
##stad
hoh
##törzs
nürn
intel
refer
sziklás
minőségi
júniusban
versenyén
csehszlovákia
kím
webb
liget
megte
előnyben
szövegét
##chin
füz
##ertőz
árul
lépése
nyomon
emlékek
komáromi
gyakornok
mozgalmak
kedvezőtlen
fejedelemség
ügyész
négyszer
koncerten
viszonylat
előfordulási
mindenesetre
rä
##nyeg
##téren
25.)
állott
deutsch
haladás
felügyelete
sorozatgyárt
megváltoztatta
##hei
##falv
##munka
keze
gyerty
##meghatár
biztosítása
tah
##iczky
##világi
##csoportot
##rim
##képes
antant
névadó
társának
erőforrás
##olsó
##átok
##hatás
1877-
elker
##asztott
trencsén
szakaszán
meghaladta
mérkőzését
módszerrel
##anyi
1947
gödöl
seine
toszk
formát
kupában
mögötte
felszáll
harcoltak
dallal
eljegy
elbocsát
mocsaras
repülési
szimbolikus
26.)
##ességi
papok
merész
sajtót
##gótarján
megford
városból
egyesített
##ор
##olet
##onia
3.)
##erőmű
1961
back
kígyó
oldalak
stílusát
fejlesztő
tapasztalt
felszerelés
##eur
sco
ever
##puszta
szalon
mindenkit
##sche
1847-
pártfog
szűkebb
vendéglát
mindegyike
##etbe
##ókra
türk
general
formális
birodalomban
##főleg
##ikkön
nich
##problém
tiszti
kertész
felgyors
kaliforni
visszakerült
##lár
##thálóz
zuhan
őszint
bolygón
motoros
##jelző
rizs
előret
##közleked
vöröses
összesz
képviselők
tanítványai
##idők
##court
luis
sorsát
stuart
ciprusi
kétéves
szokott
hálózati
köznyelv
tisztviselő
17.)
21.)
kápl
ping
##hajtású
igényt
##ódási
##gyalog
díjaz
uruguay
bírósági
cserélték
##ajos
sof
1962
gyík
##elemmel
albumán
modellt
örökösöd
beszélnek
stuttgart
áldozatot
legalacsony
rum
bond
mozdul
érthető
##rendszerű
paradics
alapszakasz
##62
##core
rai
##rajza
##ákról
1973.
hajdani
homokos
munkács
nevéből
szénhid
verseng
osztályt
tizennyolc
főmunkatárs
parancsnoki
elismeréseként
##függő
1960.
grófi
inger
zsuzsa
ajánlatot
szavazatok
érdeklődése
##aves
113
soros
megtest
változatai
belügyminiszter
##annal
##esztő
indo
hatót
zenéje
##aringiai
##egységek
visszhang
##°-
##cos
##koz
##csuk
##korát
##sberg
célt
farm
hert
cikke
ezekre
lenyűg
jegyzők
olyannyira
kellemetlen
##csal
nab
##sztár
tint
közbe
szind
ügyek
tértek
##eztetett
zenekari
hangvétel
komponens
regiszter
gyűjteménye
érdekessége
bp
árk
iker
##oncert
##székes
kazán
lapja
##felszín
megalk
védőszent
luxemburgi
megtámadták
##iner
alfa
apol
stáb
kocsik
lovagok
villany
szavakat
##hajót
adás
pand
árus
rektor
diagram
tiltott
testvérei
##utód
saw
##gyors
##ozódik
beach
kairó
kript
arattak
françois
találnak
menyasszony
##cipr
gom
##ednek
árán
durva
##bevétel
nagyra
##engedett
magasra
megtelep
székhelyű
űrállomás
##fogy
buck
légió
reduk
anatól
népsűrű
virágzó
ellenezte
perigeuma
áldozatok
hordozórakét
##ajev
euk
ivó
##evény
1953.
##alakban
belesz
szólal
fehérje
##ofon
cec
##iától
##ődnek
della
klára
jelképe
apogeuma
viszonyt
támogatás
megfigyelő
##arr
##iasz
bútor
reich
piemont
hivatott
szicília
értékelte
##rendszerben
gyulafehér
működésének
bug
1936.
ugrás
sztráj
jelölik
kollégiumban
##járt
##lelt
##éjén
drag
##onális
menekülő
monostor
megpróbált
visszavonul
televízióban
felsőoktatási
##9%
jup
##dőjel
##etésben
hadrend
bizonnyal
differenciál
##akn
##évi
jutni
látás
alapos
##testvére
gyarmatos
megjelenés
christopher
kategóriába
legrosszabb
olaszországi
##yk
##rác
1958.
kémia
rádiók
hajókat
tragédi
##területen
kiképzés
megegyező
ragadozók
meglátogatta
tulajdonságai
kényszerítette
forgatókönyvíró
##edv
##ugr
irt
##roncs
link
plak
##hatóság
dalban
kisváros
barátnője
katonákat
szakaszban
fejlesztését
##sey
##itat
kes
ors
syl
évnél
kezére
savoyai
reakciók
államtitkár
##ilor
##alais
túra
megnéz
miként
parker
kimagas
nyolcad
special
terveit
irányult
nagyszül
szolgálnak
##éken
14.)
csok
##iumban
kivág
érmet
rangban
argentína
információs
tekintélyes
világörökségi
népköztársaság
wol
##erben
##helyre
steven
vulkán
elérheti
helytart
kasztíliai
vr
##enye
madar
megér
telef
##siszent
irányítja
rájátszás
többségben
##emű
##yán
##ôme
##cske
##bilis
barnás
egylet
királlyá
megkeres
levele
móricz
nyaral
támadt
##averseny
alkalmasak
##sop
##folt
nhl
##bourne
allen
111
áru
ragy
##germain
példák
kalifornia
##bak
##boy
##lot
##holl
she
szenvedő
verseket
elvesztett
megkérdőjel
következtetni
<
segítségét
kereszteződ
##ohn
1914
##usszal
1815-
bánya
alföldi
mclaren
körülvevő
bizonyított
##mm
##tri
bars
nyir
húzódott
könyveket
##főz
##ovina
gyám
lili
mszp
tagját
közbenjár
lerombolták
kezdeményezés
##törő
1966.
eltem
hipot
barlangkutató
##cd
##ński
zag
##taként
csang
schwar
összehív
integrált
minősítést
corporation
látogatható
évfordulója
##opod
gig
érik
##németi
1720-
princ
újabban
halhatatlan
ibm
##entes
##szerkesztő
tizenkett
tanszékének
##széles
elhúz
hívott
belgrád
eperjesi
fejedelm
mindannyi
partbírói
kk
juv
##edést
szepes
bernard
angelesben
tanácsának
fra
##társa
##kedvel
##ógörög
1797-
középiskola
##ки
##arius
##ephal
1912.
távoll
elszigetelt
##190
put
óvod
sátor
aktivál
vietnámi
gyakoribb
konstrukt
##ráci
vés
##reich
##ulmán
force
alezred
pontján
##oroszország
##mák
22.)
porn
„...
konyh
##evékeny
kőbány
##sorozatban
botanikus
felajánlotta
##omorf
túli
##ciális
amúgy
dekor
föder
##ítéseket
erdőben
elváltak
parasztok
jr
##írói
##asága
16.)
bott
##ségével
csillagkép
újjászervez
##')
##ofiz
lírai
##hordozó
böngész
jelezte
karossz
hajlásszögű
megszüntetés
érdeklődését
##bál
##iko
cum
##estől
blog
masz
erény
tatab
##művesek
töreked
áttekint
egyidőben
épületeket
§
##uge
91
##ciót
##ebbre
##váltó
##ülési
mezopot
philadel
leggazdag
létesítettek
bát
##ságai
chal
helyt
ligak
plusz
szingap
festette
verziója
foglalkozása
##wall
##oltár
egér
hátr
##gyárban
helybeli
évenként
jótékonysági
##ivé
káz
tos
##ekula
afro
##pontot
1928.
ítélt
hazafi
kaposvári
csatlakozó
javaslatot
könyvtáros
labdarúgója
1958
falán
milan
pártot
élőben
gyógyszerek
konföderációs
##jong
##nica
fix
wien
ödön
világa
évadot
##almatlan
grafikai
szerelme
levegőben
##anat
adók
csisz
felég
innov
kerülni
kedvéért
jövedelem
vármegyéhez
veszteségeket
esős
képzelet
országba
piarista
ábrázolás
alj
##ikáját
##nyílás
emléket
räikkön
virágai
közepette
változatok
altábornagy
##atio
##szeml
##helyes
##szintű
mihail
mindaz
vesztes
chapelle
előadása
mozdonyt
rejtélyes
##félszigeten
baktériumok
kapcsolatát
megszerzett
összefüggésben
##aji
##mich
30.)
hoff
kurt
átlép
szereltek
##rer
##omen
##unok
tod
vinc
##egyipt
lenin
donald
fischer
misztikus
terveztek
csapatánál
munkáspárt
jah
##aknál
idézi
fordít
posztot
tartály
##biztonsági
belgiumban
##hel
##klorid
##stabil
nyoma
senna
tízezer
##gyulladás
támadták
##ókor
késői
##filmben
petrov
éveken
##–12
##georg
cink
ganz
füves
kellő
kinek
vektor
menedzs
kialakítás
dalfesztivál
##ла
##oza
##pajzs
##érkép
this
várta
kennedy
románul
##ességének
chev
mack
belov
infra
bontak
jánost
##örténész
olaszok
látogatta
hőmérsékleten
##maradó
lőtte
szend
##ságával
comics
keserű
oldalát
ábrahám
lezajlott
változásokat
##mé
##lekt
fedi
híre
zárja
üzemel
##termékeny
bebörtön
##medencében
töltötték
##éki
##tikus
##éséből
##hellyel
eseményt
kutatása
szerszám
felfedező
francesco
##dav
##etőd
##oker
##ákba
muh
##hárty
görb
kall
1862-
gyakoriak
publikálta
##unc
220
pink
rönt
##felkel
##osztás
lányuk
számottevő
figyelemmel
indulhatott
orn
##olygó
plet
rezg
##részes
1963.
kozák
szponz
keresni
teheraut
legalacsonyabb
##zási
beatl
##alitikus
halászat
orvostudomány
##ll
##lyuk
##ugrás
oldalra
szörnyű
lecserél
dramaturg
palesztin
sót
##menti
29.)
rail
##enekar
limit
okból
##adalmak
együttesek
fejlődésének
klasszicista
##/201
##amot
##icsi
cup
drága
szemét
vágott
sugaras
felvétele
low
dózs
emír
lent
eltilt
nyomai
szálló
rajongó
zászlót
kapcsolt
márciusban
##úria
fajták
meggyeng
életüket
királlyal
érdeklődést
##tv
##süt
##iáns
##émia
hawai
kiterm
nyitva
halottak
kapcsolódott
##autó
pep
lámp
##séghez
##osodott
bizánc
gépész
folyamatot
##...)
##halmi
páci
moore
birkóz
##politika
##testület
komponált
kritikákat
vegyületek
##div
##gej
prec
##csavar
idejű
jakob
főképp
itthon
kezelő
szulej
váradi
##birodalom
csecsemő
barátjával
elkövetkező
támogatására
##etil
##ermin
dimenz
felőli
látogató
gyártmány
stockholm
α
##tuk
eld
brah
járta
remél
hazája
órával
ügyben
anderson
engedték
tudomást
hd
trad
##outube
emigrált
mozikban
egyenlítő
##amit
láma
nomád
irányít
nyolcas
hierarch
megvédte
átépítés
ellenálló
##lyn
##eing
delta
krasz
zágrábi
rendellen
rekonstrukció
alba
##rekord
alapult
gyalogezred
tapasztalatok
##nya
jol
##osnak
laza
földgáz
intézetének
##múl
##–20
##ophy
lus
cand
méreg
fizető
kereső
country
pécsett
szakács
határozták
személynév
nyilvánosan
б
##châ
##log
##eaux
lucas
rajna
hüllők
##emeletes
beállítás
spirituális
##hew
##iosz
##iser
liz
##onnak
komb
##északi
rovat
gleccs
centrum
másikat
reperto
kezelése
kézilabda
holttestét
alapszabály
1962.
incid
motív
tükrözi
jelölést
muzulmán
tatárjárás
##kaz
27.)
perzs
átjár
utalás
fogadtat
alaprajzú
csakhamar
napjainkig
felépítését
játszhatott
##etté
##odinam
1952.
anjou
jellege
apostoli
pozícióját
##fo
ко
##itime
kyle
##filmek
##ligeti
banda
róluk
madách
marcell
jellegét
##ech
##ids
##uum
ré
véli
##idegen
1937.
akarnak
szükségessé
űrrepülőgép
kum
##övény
horiz
nílus
képlet
összege
békéscsab
gyulladás
tábornagy
bemutatása
##phy
##ège
nin
##illap
##fennsík
gyökér
helyezi
mondani
alábbiak
költségek
kastélyban
területeit
##not
##aver
##róma
##raták
glen
perg
vent
joggal
leírás
tanárok
balesetet
gyártását
semmiféle
vasárnapi
érvényben
fiatalember
ran
szv
##ozzanak
irányában
lecsökkent
##ku
##usson
##ábráz
trib
gránát
termelt
munkával
partnere
billentyűs
##vic
##ally
##inni
##oster
jason
udvart
érseki
írások
küldtek
##arendszer
közgyűlés
megelőzve
akusztikus
lehetőségeket
##irata
mast
japan
szett
union
##szarvas
zongora
közelébe
növendék
távozása
mérkőzésén
katonatiszt
eleje
villen
##ozásokat
eljátsz
tényleg
meglepetés
##tolem
##álást
kürt
lakt
mást
poll
##ajáték
##energia
morris
hazájában
levelében
mellk
spont
alapítás
épületében
##asd
##ots
##gard
##malia
##formán
küzdő
##osságát
kráter
mértéke
összevon
nagyközön
tanulmányi
##itte
##émon
50.
1921.
képei
##óniában
kliens
meccset
philipp
délelőtt
##chel
##szok
##intern
luxus
theod
oroszul
##omat
távú
vetél
##hatatlanná
születésének
##etto
##ánuel
(191
bros
arányos
olvasni
polinom
eszterházy
megtalálhatóak
nemzetiségűnek
##dan
1959
told
vonós
nyerni
segítik
szemtan
kiindulva
kutatásokat
##mitt
ket
##yréné
1–0-
##yrénées
derült
felhalm
elszenvedett
add
1800
hírh
derül
rákosi
forintos
leggazdagabb
istentisztelet
##csík
##verte
kord
említ
antisz
lebegő
pénzügy
munkákat
műveiben
##oteráp
ázsiában
egészségi
felújított
##uál
##övi
##épes
##modern
domonk
félték
kázmér
néprajz
levélben
bemutatja
körülötte
megakadályozza
##spe
mp
nm
##hart
112
##előbb
##hassanak
kiadását
szintjén
kimagasló
számítottak
megállapodást
##mut
##ázd
##icit
##ülék
##unkat
##úciós
mani
##otechn
##ségére
célkit
##használat
##kilométer
földtani
néhányan
feliratok
országában
gimnáziumot
meghatározza
##esper
terr
iszap
távon
pálffy
tanárképző
##egye
##ongó
trin
##alommal
motork
egyházak
kellemes
születik
vezetőedzője
mindenekelőtt
##áé
##uin
##vízi
fúr
jay
##meccs
biok
gent
sánc
##izálás
kifut
bolsev
kijevi
koponya
talajon
erdőkben
alakulnak
képességeit
##hs
##figur
thur
fland
bónusz
ötször
területű
visszafog
berendezések
megszüntette
megállapította
zu
##asson
chan
##nemesi
##ódását
sólyom
##egészség
vidéket
ji
##erőd
##ohan
fem
lom
##ciklus
1954.
costa
koszov
körökben
sorolható
döntőjében
1:
##szan
tut
##halál
sokak
arnold
zaklat
műveletek
megegyezett
problémákat
összetettben
básty
darabok
##miniszter
csapatait
##gyilkos
indian
##formáció
fernando
kanonikus
tizenhatos
közelíthető
összetétele
vu
tao
konv
bonap
szark
begyűjt
emlékei
engedte
belvárosi
mindenkori
rendszerrel
##aiosz
szec
##emberg
cannes
vincent
átadták
értelem
amszterdam
##cou
##strom
csem
cson
hoznak
szelek
##mammalia
elismerés
szlovénia
szándékosan
##yo
##ensen
zenél
festék
##seriformes
császárné
jelentkező
sebességet
kitüntetett
rokonságban
##nam
##nát
##alsó
hud
trol
1916.
lipcsei
szánták
üzenetet
##féleképpen
meghívást
##dem
##laur
##mail
pac
##iment
##ságon
cort
##világa
##apitány
fejezi
filmdr
testet
hardver
krónika
százados
bevezette
megszület
##zo
ic
jas
ács
##erick
##szerb
##ólyag
erdőd
trófe
földje
nintendo
barlangban
védelmében
##kop
ow
##atni
##ilip
ndk
##jéből
érez
1915.
hannov
hozzáv
norman
megkéri
nappali
motorral
##köre
paris
szaúd
##harmadik
##szentmárt
kiegyenl
pontokat
épületét
csereként
ösztöndíjas
##csik
szö
gary
augustus
koncentrációs
jellegzetessége
##chw
##rusz
lemar
marco
mesél
antark
dízelm
verték
folyamatban
##bad
##ugy
fön
##ajdzs
##eszék
hegyvidéki
tevékenységének
||
##enzi
##órás
ras
1913.
elvág
meghi
lépést
eltűnik
említve
jelvény
fosszíli
kisfaludy
##96
##emh
##árnyék
meghiús
sztyepp
időszakot
fokozottan
névváltozat
kapcsolódnak
wa
##assá
hipp
köln
írva
chart
##szerzője
szobrok
végződik
fejlődést
sokoldalú
használati
##baz
##jat
##nye
mk
tró
##edény
pint
afgan
főcím
korall
rájött
üstökös
határait
victoria
csapathoz
hadserege
csoportokban
rou
sorok
elvette
osztója
vagyonát
érkeznek
menekülés
számoltak
##ektus
##házán
##ogyor
##műhely
szlav
szelep
terasz
tábori
nagykövet
búj
##jogot
amiről
egyedek
kijelöl
kizárták
árnyalat
ivarérett
meghívott
élőlények
választottak
##gs
##oš
projek
sikerű
olaszul
##ilop
nai
##köztük
lakik
gyűlés
környékét
megakadályozni
##cole
kálium
nevüket
hatvanas
készítik
köszönheti
módszerekkel
munkásságának
##eva
##aker
450
##hajós
##áknál
fizet
tobor
##enburgi
elemet
befejez
gyártotta
szerintük
egyesülete
gravitációs
jellegzetesség
##auer
##hisz
##itál
##more
ain
benja
griff
boeing
kevert
##ulásának
epizódja
ferdinand
hároméves
világában
visszaford
##funk
##orba
1951
ferm
more
váló
kezdődő
összeget
ausztriai
negyeddöntőben
##upp
##iger
##achus
kézen
##garonne
kőszeg
sorolta
melléknév
visszakap
összeírás
fah
(183
##estert
gólok
porta
urban
##instein
alakok
legegy
##maritime
aranyat
western
jánosnak
teljesül
kiállítást
igazságügyi
versenyszám
rít
##etésének
vegyész
kazinczy
tetszett
otthagyta
szolgáltató
1953
óraj
avant
játéka
felvenni
magaslat
meghonos
diadalmas
szombathely
##76
##edo
eme
ryan
1951.
1959.
dunai
##világban
barbara
csúcsán
követni
személye
folytatás
váltották
földalatti
##ograph
##győztes
##művelőd
##vonatok
balass
kodály
pietro
töltés
csontos
##sebességű
bevételt
osztálya
órányira
##gra
##sport
pier
1854-
sovány
##fogyaszt
##kereskedő
wi
diego
miami
néhol
##ezésben
mutatk
sztere
##szekrény
konverg
peremén
pillang
kritérium
szakaszát
visszahív
véleményét
egyesítették
##szolnok
vádolták
féltékeny
népcsoport
kupagyőztes
legeredmény
tanácsadója
megpróbálták
##usse
ild
kij
adva
tőzs
##állása
fogadó
mígnem
ragasz
##esztették
szemlélt
egyesülés
nyolcvanas
pusztított
befolyásolta
##ići
##elló
blu
akadémi
telepes
felolvas
tüntette
eltávolították
##78
##esték
##vival
hern
1813-
antig
alsóbb
garant
lecsap
listára
írásban
emlegetik
nagyváradon
vezérőrnagy
elektromágneses
##ress
##–49-
1929.
1933.
kelly
esetet
figyelmen
összeütköz
középiskoláit
valószínűséggel
##éja
##euve
##étól
ara
pag
hurc
bolív
lejár
címadó
szemlél
belföldi
ramszesz
létrehozását
##időn
##lési
peru
work
testű
kétélt
mialatt
vizsgált
bukkantak
fordultak
cô
##andro
túsz
leigaz
választmány
fokú
##oldalán
élesen
vádjával
egymillió
monumentális
##omo
cad
fun
tőr
duzz
fame
köze
story
kazett
##erbajdzs
megszerzés
áthelyezték
##raft
kid
##attan
őrző
bomba
küszöb
várban
életük
##izmussal
harvard
leopold
kiadásra
fejedelmi
philadelph
emlékezetes
##',
##tra
##ajár
##rium
maff
selm
kórok
oliver
digital
filmnek
##mezővásár
forgalmi
kápolnát
feleségétől
fejlesztések
##icon
crist
eleve
ptolem
elemeit
vallott
megnehez
előállított
##héj
1831-
előrel
mintáz
oregon
tágabb
vízfoly
hetvenes
ellensúly
életmódot
egyezményt
##])
##ukrán
1955
médi
tárc
##kontin
könig
iparág
átszáll
kívülről
##80-
##lub
##ree
##adat
mál
##alkotó
##vonalon
törtek
olyanok
országa
##tartomány
amelyről
helyezik
aranylemez
frigy
szomb
##latinul
##inalemez
##voltából
anyagát
temesvár
amelyeken
hadjáratban
##ingi
##ular
##észár
ambr
orch
tyler
kioszt
madonna
##szolgálat
embereknek
kölcsönben
különböztet
tanszékvezető
##nan
chat
##oldalak
##érzékeny
legelők
terveket
elvesztése
megfelelője
gyógyszerész
meteorológiai
##eiért
##vágány
##tengely
egyezt
eladási
elavult
tönkrem
megbízat
útvonalak
görögkeleti
salgótarján
szolgálatába
##cég
##régi
hov
saur
##övetel
jutnak
járult
bevásár
kompati
moldvai
nyersanyag
rangsorában
##cip
##eme
##vest
##gépek
adódik
megyék
medence
teljesíteni
kialakulását
##ollyal
##riában
fertőzés
millenni
támogatója
##eira
cic
szah
julius
##bemutató
állomást
doktorált
megoldása
szabályozás
átépítették
törvénytelen
pik
##kollég
széria
dalmáci
keretek
konfuci
informatikai
##ар
##űlő
##–30
cai
rex
##múzeum
harcba
palotát
tengerentúl
##roh
hag
##ébreszt
automat
tűzoltó
youtube
kozmikus
fontosnak
kihallgat
udvarában
nagykanizs
ukrajnában
végeztével
háromszoros
megjelentette
##föl
mov
##sopron
csing
hívek
elnökének
figyelemre
jóvoltából
fegyvereket
bekapcsolódott
##kával
ingad
palack
szépen
ciszter
ferencz
foglaló
gondolata
leszármazottai
##oie
cáp
ede
expl
bakony
erdeje
mondják
birtokán
mérkőzése
eretnek
gyengén
hatásai
kiszéles
szulejmán
befolyásos
élettartam
##echn
sej
sip
##elmúlt
garam
isztria
verseit
játékost
elnökválaszt
platinalemez
konzervatórium
##ift
sey
ketté
ovális
készlet
lexikon
mágikus
irányból
kieséses
távollét
hercegnek
állhatott
határozzák
világűrben
##bőr
##plik
lloyd
tábort
megszűnése
##bec
##brán
pitt
ster
zóna
célok
anarch
címere
vasútt
köteles
sepsiszent
##asan
1917
1930
##nyugat
dzsun
motiv
utókor
##tengeren
félelem
kalcium
passzív
megoldani
közlekedtek
tevékenységek
##ao
##via
graz
eleon
hibát
humán
##viselők
commun
kongói
kiadója
fővárosba
elpusztította
##adót
##isky
##orsó
lub
##érdem
szit
veres
##észetet
máltai
maradni
szekció
testnev
##bajnokságot
nyelvészeti
városközpont
##erh
neu
1846-
vonzó
##ótanács
magnus
specif
éppúgy
alkotók
cirkusz
távozik
különben
látszott
megjegyezte
tartózkodik
##anty
##letű
##onba
##óczy
240
szé
beng
soft
wald
##doktor
dallas
kinyit
openen
rajtaüt
koppenhág
##3/
##47
##kay
##utóbb
1954
megnő
karcsú
konrád
absztrakt
nyugalomba
unokatestvér
##vás
1924.
schön
utast
őrült
normand
sorszám
csíkszer
räikkönen
karakterek
##tám
##falt
csu
apác
1955.
békek
elvét
örökbe
űrrepül
régészek
városháza
##addig
megnős
ostroma
bevétele
művészete
felhasznált
##cap
##róz
##stb
##zélandi
lelőtt
##versenyt
hajtotta
##víg
##áktól
klán
krét
##gatott
1858-
ihlet
törpe
vetély
szakíró
elvállal
értesítő
székelyudvar
kac
kaput
utalt
juvent
balkáni
eszközt
hagynia
összehasonlító
##68
##nyá
##terh
publ
wars
##edését
##ejének
andré
színi
vidéke
előadója
ugyanezt
elfogyaszt
intézetében
megjelenésével
##gató
##álok
che
nim
hunt
##formes
1930.
hanna
akikkel
minimum
összetű
stratégia
történetíró
folyóiratban
##adzs
##itus
360
beszéli
eltérés
hagyják
istennő
versenyben
##ozo
##csin
##ossa
(13
##erton
morgan
üldöző
beatles
benyújt
�������
közelmúlt
megszállt
visszahúz
feloszlott
szolgálatra
főszerkesztő
ved
ütő
belef
kötés
##edelmes
##vitamin
mozgós
felállás
meghívta
sérülése
társával
mechanikus
meghatározni
meghatározás
##neg
##ökben
ágon
1932.
bármi
kézre
vajon
féltek
szergej
előzmény
kislemezen
kéziratban
utasította
##enay
##ockey
##ruház
pete
1838-
venet
##achusett
kerámia
##rocesszor
célszerű
felkutat
tanulmánya
fantasztikus
középiskolát
##bomb
##ónium
akadt
helyszínre
határozottan
##uro
##halm
##seje
járul
náluk
komikus
szenátor
habsburgok
használatára
szimmetrikus
engedélyezett
##ukk
suz
##gitár
##gorod
##ozója
irak
sankt
alakot
erősöd
birtokai
elméletét
felkelést
felszínén
foglaltak
beavatkozás
##csó
dac
emma
zepp
izlandi
oldalas
tengeren
fordulóján
##ils
##oir
deg
90%-
boul
news
vizek
kopasz
utazik
tanácsk
alapjául
követelt
napóleoni
megakadályozta
##head
##szív
fit
pof
##ektelen
schmid
albumát
##földnyire
helyezése
megdöbben
zajlottak
szlovákiai
viszonyítva
nagyszombati
##key
csáb
zsűr
point
##emberek
advent
hónapok
regényt
##szolgálati
említésre
kiépített
##play
##ware
jóg
##szulf
magá
spór
##seille
szand
vélik
##adással
##szerepet
rajzolt
alkirály
nyugdíjas
##max
##lanak
##elésével
bulgári
hadszín
hónapra
elmenekül
helytartó
megismétel
versenyzője
öngyilkosság
##hum
##paul
##star
szenz
szitu
##vizsgál
##íttette
russell
félreért
hanglemez
szülőföld
vágó
##estyén
danny
fogas
##repülés
erődöt
konkur
könyvei
meghird
irodalmat
munkavállal
##pia
##üzet
12,
pun
szi
##eltér
grön
prav
##képződ
##éjének
design
mondan
##ációjának
növényfaj
##britanniában
fordításában
##atin
##ukba
naz
nszk
rász
wild
##rövidebb
invázió
birodalm
hasonlók
maradjon
meggyilkolták
##jul
##sért
loc
##telenné
ötéves
##völgyben
nyugodt
huszadik
jelenték
demokrácia
hr
2–1-
ebéd
grad
mlsz
##kodnak
paran
spárt
akiről
manuel
nelson
tagolt
törmelék
felhasználói
négyzetméter
##lou
caf
ima
irat
kálvin
írásait
nagysága
legutolsó
listájára
császárnak
##agok
bkv
coh
dic
gul
adel
adams
krími
##ezetesebb
megyeszék
##hont
##umin
mrs
ipoly
illeti
községek
megsebes
méghozzá
állítható
szerepeket
hozzáférhető
kialakulásának
##eső
##anie
##atti
(11
##indiai
törés
dolgoz
logika
tárgyi
mozgást
wimbled
tápanyag
székhelyét
vetítették
##lid
##war
##ther
100.
oszk
##lással
1332-
1845-
csoda
##lásával
##írással
bolond
hallat
##ológiája
alapszik
császárt
egymásba
##hatatlanul
háttérben
##mesz
3,5
##özték
jedi
nova
##felvon
##ovszkij
hetven
libert
rendje
##veszteség
megtagadta
nagysebességű
lun
##ólemez
braun
mozik
színt
ballad
diadal
rotten
kiestek
mercedes
szakértő
tantárgy
(��������
kistérség
érdekelte
epizódjában
jeleneteket
kiegyensúly
csoportjának
mértföldnyire
##szót
fol
##újfalu
##cirkáló
kicser
bolygók
nyelvből
összpont
azerbajdzs
esztétikai
visszaesett
környezetében
##ismeret
festői
vonala
díszlet
enterpr
mohácsi
vehetett
ítéletet
útközben
mindenkinek
##fu
##ld
##imo
##sis
simp
##doktori
homokk
addigra
neutron
ásványi
admirális
körmérkőz
publikáció
##umusz
rétt
verb
1935.
beleh
kijav
liban
##pontját
##ásokból
újjász
##hatósági
legmély
mostani
champion
mocsarak
szecessz
tanácsot
bölcseleti
eredményezett
olaszországba
##busz
##onde
did
ász
burk
##csökken
hajógy
orgona
megfont
állatot
szabadid
szinonim
szurkolók
kábítószer
megromlott
befogadására
megközelítőleg
rajzfilmsorozat
ecu
##eball
##lomer
babe
tőke
mezei
vegyi
előfut
channel
perzsák
honvédség
jogtudományi
##nav
##enei
##rann
morf
mélt
serg
nevei
parag
sumer
rokonai
emeletes
luxemburg
##umen
pér
##felső
##értéke
##hozatal
##ulásáig
címert
utasok
jelölve
tájékoz
újpesti
megfelelt
magd
szárd
ville
##vasutak
kerámi
túlélő
##betegség
egyebek
útmutat
##valószínű
rádióban
cigánynak
világosabb
##sec
##zsin
eszköze
rendben
évekkel
slágerlist
osztályában
nyomtatásban
##46
##iskolát
##roszkóp
puerto
fordító
##személyes
##őrendszer
benjamin
kutatója
elégedett
##mac
##iklop
disc
##ületek
artúr
szíve
lándzs
yorkba
könnyűz
napfény
magyarra
bizottságnak
monográfiája
##cat
fűtő
márka
claire
feltör
mellső
series
őslény
azokban
humoros
megnyug
termése
vezetnek
kiadásban
vizsgálja
tehetségét
megengedett
verébalakúak
bep
dre
2500
##hausen
##ipászt
hadat
állását
alakulása
sebastian
szeminárium
eul
1600
poly
##istája
felhagyott
##raul
##olles
arts
dist
potter
##almazott
díszítik
elhagyott
hallgatta
kisméretű
fontosságú
gyermekkorában
##elvű
##ents
(0,
##rendet
1598-
megad
quint
##sivatag
rendek
vezére
folytattak
racionális
alkalmazások
##ww
##ial
##álódik
előtag
dolomit
edinburg
munkaerő
országszerte
##inda
fuv
##ecske
##indulatú
automata
##pozícióból
dunántúli
gyermekét
szocializmus
adminisztratív
miniszterelnöke
fm
cow
gorn
mick
##cirkál
1922.
kupol
korból
triász
kiváltó
emigráns
fellépése
feldolgozó
feltüntetve
keletkeztek
koncentráció
gt
aff
lik
rok
1936
dead
urak
##berger
1925.
tetem
kanton
lezáró
müller
tajvan
somogyi
égitest
jegyzett
eszperantó
felkészült
összhangban
##uy
##rúg
ng
stars
ábécé
##hampton
##letével
prófét
rámutat
hátrahagy
szállítottak
üzemeltetett
sts
##ünkös
báni
tagú
1600-
perif
szeksz
valent
életműv
franklin
folyóiratot
##far
ub
##atre
##zésre
jutó
majom
szell
fűrész
hajdan
borbála
versesk
főtitkára
##szén
##úrák
kip
##entum
##ulata
arat
ránk
jelzik
sorába
túlélte
térfogata
függvények
hasonlítanak
bic
ner
okán
##kovics
##oldalt
csáky
giuseppe
jellemzik
tanárként
játékosnak
metropolit
elfoglalása
osztálybéli
poroszország
szervezésében
##fürd
##gomb
##itis
##emens
10%-
head
borisz
ellenük
kreatív
vietnám
megmagyar
~
das
500-
eddie
giorg
golyó
josef
koráig
lejárt
foglyul
követői
festival
régiójában
##óan
bég
isa
##ságait
1931.
cseng
felmen
##állomást
sorozatok
szavakkal
észtország
elterjedése
örökösödési
általánosságban
##bre
##árak
1856-
görbe
bocsán
kamera
##technika
próféta
írással
virginia
igazgatói
##cor
key
rép
tárgyú
##olásával
##álásával
filmeket
góljával
játsszák
képeznek
##fy
##hod
giz
zűr
thök
kassa
felének
project
republikánus
stúdióalbuma
tárgyalásokat
##43
##greg
##kock
##west
lid
##ignan
csöv
1820-
barry
games
várni
##ervátum
arányú
##asztikus
biológia
jóllehet
charlotte
körzetben
átalakították
##ölő
luke
szúr
élve
##pataki
etnik
képen
sorak
##aművész
lapban
mandzs
szembes
rekonstru
történetben
##42
##orse
mek
sek
ston
kabar
##magával
bocskai
kényelm
tönkret
lányával
problémái
szükséglet
villeneuve
megtiltotta
szabályokat
##ezzék
##illac
hajós
megtér
szánta
hektáros
segítették
nemzetiszoci
pszichológus
##belső
##chner
prix
1784-
csemp
jerry
extrém
itália
adódóan
valahol
kötötték
zsidóság
hirdetett
intervall
váltakozó
alekszandr
alkalmatlan
##real
hétköznap
nagydíjat
jobboldali
##kereskedelem
bemutatkozó
településről
##67
##aui
joz
rabb
##edések
agyon
erdőt
kubai
##állatok
motors
reális
skócia
##vígjáték
módosult
átkerült
hasonlított
##89
д
1952
##járvány
##legjobb
tivadar
végered
háborúba
jonathan
geometriai
vezetőjének
##owa
##enos
##ibás
puccs
visszam
gazdagon
legegyszerűbb
##rács
dad
##abbra
##hessék
csere
drezd
kezén
sugall
téglal
havonta
spontán
osztható
együttese
filozófiát
megnevezése
személyisége
aga
vib
##vizek
moll
1855-
pedro
tészt
céljuk
vasutak
zászlós
bolsevik
hőmérséklete
nagyfejedelem
ria
jess
watt
##eletet
baszk
divíz
##polgári
zavarg
nagynén
bizalmas
domonkos
misszion
megszüntetése
##nd
##uson
##avirág
belet
sarok
elkísér
1848–49-
halálakor
kivételes
művelődés
##lip
get
gang
lank
##azonos
kábel
prakt
legnev
paroch
sziszt
##esztette
journal
olcsóbb
meghibás
végeznek
bonaparte
forráskód
munkahely
adattárban
lelkipászt
üzemeltette
##imil
##tabb
##rovnik
fajnak
idézet
lening
feladta
folyosó
témakör
emberrel
gondosan
superman
felváltva
jellemzői
jezsuiták
osztályok
szakértők
##jug
ká
cet
(��)
hitte
honor
##holland
apjával
bevonult
befejezés
elméletek
megnősült
utasítást
magánhangzó
megállóhely
6000
verg
kapuit
##aválaszt
britney
ligában
baseball
rendezői
országnak
versenyre
előkészítő
képesítést
szolgálatát
1-1
1/2
##enson
##rence
férő
1934.
##ságáról
bonnie
retteg
damaszk
lisszab
seregét
programja
évtizedben
##passeriformes
gyógyszertár
megtartották
összetéveszt
##urs
##urai
##ányt
porty
sarja
tágas
védők
##tervező
hitték
hányad
pestre
átvált
harcosok
játékokat
megemlíti
próbálják
##németország
emlékezett
különböznek
értelmezhető
##marty
##worth
jang
pong
legki
lovak
mellőz
parkot
félelmet
##feldolgozó
főhadnagy
szakterület
magyarországhoz
rat
golf
samu
ellátó
ablakok
elöljár
motorok
számjegy
##nar
##tte
rox
##iroda
alli
bunk
##optera
tüzel
wales
##visszav
csakis
tüzelő
összeír
finnugor
dalszerző
próbálkozott
szolgálatában
##ness
jin
mese
labda
csongrád
járművet
lovasság
tervezési
##pla
##eljes
gene
alján
liptó
##ométert
herman
szárnya
gyakorol
műsorában
bemutatója
egyenlőtlen
listavezető
##szib
zil
##mivel
bold
lake
brüssz
dragon
mocsár
állhat
érzett
##ségesebb
fogalmak
posztumusz
uradalomhoz
##isse
##kelt
##etics
eltart
##istaként
##közösség
hatvány
határok
katalán
barátját
magántan
csapatnál
teljesítményét
##szom
##ction
bapt
hála
kalm
madag
##egyháza
##szatmár
pennsyl
énekese
hátránya
vizsgáló
beszélünk
felújítása
brazíliában
##kú
##cuk
##arai
##ates
##ович
##festő
##iváló
karib
léleg
hűtlen
vacsor
cirkáló
kívánja
takarék
végződő
##rendszere
##ításokkal
elfogadja
többségük
városokat
átalakult
győzelmével
szentpétervár
másodosztályban
tog
tűr
##oszló
arca
chip
verm
abaúj
klein
##icizmus
anyját
gyűrűk
emigráció
tehetsége
jelentések
##41
##aha
##fot
##andós
baldu
galak
##kezelés
viszik
##táblázat
herbert
melyről
színűek
lakóhely
salzburg
válaszolt
társaságot
főszereplők
##ен
##émi
##enes
btk
pla
��,
##egóri
doub
pors
agrár
szünt
##szombat
feldúl
tétele
őrzött
ellátva
jobbára
kaposvár
mesterek
sújtotta
ajándékozta
eredményezte
##ancy
vor
##house
rott
sodr
kieső
rassz
szült
válni
kapunk
ihlette
tizenhét
csoportra
sorozatos
állapotát
megmutatta
könyvtárban
sorozatában
##nb
##abi
##ofág
##ánként
anders
atmosz
vettel
grammat
matthew
birtokba
nyomaték
példakép
koncertek
##wei
##zeg
##ődés
kogn
león
zárva
ekvival
borítják
felhívja
útvonala
forradalm
növekedés
kilencvenes
érvénytelen
##gio
##igl
##obi
##asso
##atem
##otor
ess
korn
bácsi
kiirt
promó
hegyen
lépnek
hírhedt
eltűntek
leszálló
ciszterci
palotában
##ahol
##alát
##teszt
##állós
klór
orig
1926.
legitim
bazilika
szellemiség
szolgálatával
##ucci
1937
iron
sint
press
kaszin
wessel
kínaiak
manipul
tárgyat
firenzei
követség
repertoár
zenekarok
fejlettebb
bekövetkező
szezonjában
marosvásárhely
toul
cikkek
pünkös
alakúak
lorenzo
szintre
esztendő
kettejük
sokszínű
kislemezt
feltételez
hadseregbe
szerencsés
##agú
##osav
féle
prok
gyomor
vallom
okoztak
vadászt
megkerül
biztosítva
elfogadták
kerülhetett
folyóiratokban
##lock
##usza
##verz
(12
izol
elemér
haszon
justin
tévesen
örömmel
felülmúl
bizonyítékok
ps
##rhin
buzd
##tovább
célul
hiper
water
##ényszer
portál
##eszközök
nevelte
relativ
termelési
nyelvekben
katasztrófa
##–6,
##ahúg
##band
210
ana
##annon
jung
##etlent
csern
kimen
##tartály
elutaz
kornél
domborműv
feltételezés
felvételeket
##xe
cigar
újrak
##ifornia
távolsági
megtalálni
mérkőzéseit
csökkentette
##lay
##enny
##átot
##ejtsd
##range
##erdély
kéreg
érnek
ildikó
marcel
azáltal
kivételt
szereplői
gö
heb
1935
lila
lion
zalai
holoka
##szerencs
komprom
néppárt
felkérte
szanszkrit
testvérével
meghatározta
homoszexuális
##házba
nász
beeth
edzői
széri
##ionista
munkak
töltik
##osztályú
ütemben
##egyszerűs
ejtőernyős
felfegyver
jelentenek
tüd
##mexik
1852-
oldat
##esearch
festők
vezérlő
intelligens
##79
##hágó
##david
##latos
kitűz
melan
tagol
leghat
olivia
aranyos
halotti
jellemzők
értékeket
massachusett
##72
##üllő
##kárty
##lovas
##nemes
erejű
graham
testőr
##észettel
átvették
előadásában
módosították
slágerlistán
##low
##őkön
cob
gill
##ogatás
1773-
1842-
1844-
carlo
##ellenőr
kezelni
fővárost
gyűjtötte
gyümölcsök
házasodott
bizonyultak
elengedhetetlen
##lio
##–3-
##aron
phd
##kiskun
##szenny
##közlési
idényt
proton
puskás
törzsi
##készítés
fizetés
pilóták
találat
szervezték
tisztségét
##hó
##fek
##avez
##inka
fag
psy
vip
fair
what
nőket
sógor
lemezek
erődített
elindította
##evél
##ommun
űrsz
hírnév
vaszil
települtek
##abás
##öreg
##ierra
helm
lanc
zeit
lábai
jupiter
szólnak
uralmát
fehérjék
hamarabb
téglalap
áttörést
kizárólagos
bonyolultabb
nacionalista
számítógépek
##bra
##nil
##franci
##jairól
carter
előírt
aszfalt
felléptek
szabályai
önkormányzatok
pf
##gyak
kag
tai
##lélek
titan
terhes
radioaktív
szertartás
önéletrajzi
##bern
súr
##rangú
##úszójú
##osított
folyót
indonéz
nemzető
honlapján
megnyitotta
##duna
##icai
##kent
##okod
##orio
##tájt
##ulum
1-2
ais
zam
öbl
##lines
##vagyis
almás
tudjon
##hessenek
thököly
tojásból
albumának
megtanult
szintézis
választani
bizonyítják
mellékszereplő
##körű
##nyer
##színi
félév
laura
##eközben
faluba
sorolt
szászok
zöldség
áttelep
incidens
##aldi
hűtő
tere
járni
jöved
miszt
írónő
reagál
enciklop
nyereség
mellékhat
vélhetően
felszerelve
##auz
##gól
##iber
##ussy
fáb
##inson
##ortól
##korlát
##termék
##árgyal
1927.
összer
autóval
kutatói
napelem
csapatba
kromoszóm
pátriárka
újságírók
gyerekeket
jegyzőkönyv
##abe
##óvár
alleg
maked
amelybe
típusok
januárban
jelleggel
versesköt
készítmény
világszövetség
##vó
##apát
gag
hamv
1839-
jelet
városon
létszámú
fertőzött
birtokolta
harmadszor
##nás
##képe
sió
1908.
megseg
prózai
sorában
zsellér
egyenruh
kézműves
fellázadt
viselkedése
##rug
##alla
##szed
edu
feljebb
hallott
milliós
rejtély
robbanó
jelentik
atlétikai
nagyobbak
állomások
formálisan
földművelés
##uja
##uti
##beck
got
##ereje
foci
titul
mértek
kötetet
##felügyelő
eltöltött
kezelhető
bemutatóinak
##lést
##penz
##ures
gön
##könyve
1700-
1829-
polar
##csapata
törzse
magától
hirdette
térképen
ökológiai
hónapokban
irányítást
akkumulátor
bemutatásra
ellenállást
szétválaszt
alkalmazását
elvesztették
jelentéktelen
и
##–193
11,
jáv
poli
erőmű
téves
##szakadt
uralta
szárnyas
házassági
megszálló
egyenletes
szövegkönyv
##но
##riv
##lábú
##rász
dóm
##somly
szad
későn
papir
roncs
tonnás
családé
vértanú
keretébe
kerüljön
elnökségi
színjátsz
infravörös
külterület
##nét
##pri
##velő
búr
éhez
##jelzés
##páncél
##tározó
házba
tegye
felére
rétegek
analízis
broadway
előadott
universal
kontinensen
##-)
##90-
##eke
##tára
utó
védi
vitát
sajnál
osztják
tornyot
##akadémián
lawrence
research
szálloda
##történelem
gőzmozdony
központban
programját
zalaegerszeg
normálalakban
valószínűségi
2:
##eden
##úszt
1837-
nehogy
termel
hiányos
felszíne
hajtották
indítvány
koncertje
tipikusan
észreveszi
##szolgáltatás
ou
##bécs
##ítőt
lád
was
##jazás
##mánnyal
##íthatja
aratta
listát
vonuló
városába
sebestyén
constantin
értelmiségi
tömegközleked
##7%-
##gőz
##able
##enov
##toll
row
teg
##eresz
elbuk
lexik
nyíló
rival
sehol
évtől
ömlik
##opteryg
áttért
feröeri
meghall
főhadisz
receptor
unokahúg
biztosítják
ș
##bat
prém
lépni
málta
##bemutat
gráfok
gustav
gyergy
hawaii
veszett
észreve
boltozat
kikötője
légkörbe
terminál
büntetést
zsuzsanna
production
temetkezési
országgyűlésen
##ócs
3-4
lót
béta
somme
tolna
##ástalan
kiment
vezetik
tüzérség
##rendszerek
közvetítő
technikát
tudatosan
angolszász
betiltották
utasítására
##www
bey
zug
##tudós
hond
ügyet
##vállalk
##ottenham
uradalm
kockázat
képezték
létezését
versenyek
minőségben
beszélhetünk
nyilvánvalóan
##rébb
nak
##ikkel
xbox
maría
magáról
##figyel
1853-
dalait
dunaúj
percig
america
hitvall
istvánt
pekingi
gondolja
sajtóban
tanítása
madagaszk
jellemzőek
pályázatot
mozdonyokat
alcsaládjába
pp
urán
1900.
bazalt
kalózok
tartományt
bennszülött
miv
##others
impul
legtö
rágcs
amazon
gyapjú
ételek
domokos
eladták
szentes
pant
court
gyanak
cartman
felette
jelzett
szálltak
edinburgh
gyalogság
játékfilm
szigeteken
származása
##69
##hin
##jút
##zük
hél
1910
50%-
infl
érve
##ejében
##tetett
elbont
megelég
kiadónál
wolfgang
dubrovnik
propagand
tisztában
felbomlása
megtalálta
filmfesztiválon
ón
burn
toló
sawyer
sarolta
szórvány
megerősöd
kiemelkedik
mindeközben
##uca
égi
##aterm
##ignac
trek
##félkövér
##zélandon
felvételi
funkciója
községnek
februárban
felfedezték
gyógypedagóg
megközelítés
munkálatokat
továbbjutott
##zók
##agáj
##arna
40.
750
##inius
vlad
##ailles
öntöz
##oszféra
(�����
konyha
fejlődnek
uralkodót
erőszakkal
260
dió
##árral
gian
hagyni
interf
mennyi
osztja
egyének
gabriel
hegedűs
jövőbeli
megismét
pusztító
hátralévő
hadvezetés
befejeződött
##bas
##fréd
##gita
telev
algebr
eloszl
látjuk
funkciók
bronzkori
rendezvényen
végrehajtani
##rij
##tter
##eljék
##olisz
klón
olga
##osítás
konven
sikerei
tanulás
átadott
egyforma
paradicsom
állomásozott
vállalkozások
##hám
##itar
wel
bess
trén
szoktak
molekula
rajongói
szemszög
##rell
hos
##szind
szum
first
gyanú
massa
díjjal
gyulai
##ausztrál
##ekvencia
juttatta
kirobbant
magánhangz
vörösmarty
politikusok
##illi
főz
##fejtő
1915
##turbin
##osztrák
##oztatta
feláld
hivatalt
posztját
időpontja
katalógus
amelyekkel
menedzsere
##lakó
lon
1933
szelíd
kipuszt
kollektív
ültetvény
tévésorozat
##ahl
##jov
##tunk
arz
mix
split
##komplex
kiadást
feltétele
sugározta
keresztelő
természetű
szerencsére
vasúttársaság
labdarúgócsapat
glas
látó
stev
1836-
##keleten
csepel
rendőri
bejárati
helyükre
processz
csapatába
jelenetet
csoportját
mutatkozik
boj
puha
##táblát
éveit
gépgyár
térbeli
egyházat
idejéből
beválasztották
##dúr
##ené
kób
##ótábor
##járatok
előfiz
infáns
leírja
régiók
kispest
megfejt
##feldolgozás
főhercegnő
kérdéseket
1911.
erkel
esküv
ipart
##mingham
elképzelése
##bizottságának
##ouri
hór
##ovich
##jektív
vinni
medián
recipr
óváros
('
dög
vera
hazug
kései
##ellemző
franco
kapjuk
fészkel
hazafias
segítsen
időszakra
legkiváló
pozícióban
tehetetlen
gol
##hártya
műben
##artalmú
##vezetők
##őképpen
egyiket
felmond
veterán
melyeken
prágában
püspökök
könyvtára
tottenham
emlegették
fordításban
programozási
tengerészeti
bemutatkozott
##/2
##fur
##rif
##–11
##ardi
##szin
ald
##körny
2–0-
aless
hátán
házát
leíró
szarv
fűződő
líceum
többed
##horvátul
fehérek
gellért
seregei
elméletet
felvidéki
szenthárom
történelme
fogalmazott
próbálkozás
##avi
##elék
pow
##ronic
morg
halmazán
juventus
szezonja
tartalmát
tekinteni
legkiválóbb
börtönbüntetés
##?”
drót
hetet
##ékoztat
múzeumot
létrejövő
fiúgyermek
megalakulása
újjáépítették
##még
##laki
##beton
bres
kalot
nemek
díszíti
könyves
novgorod
kimutatták
comm
elvez
esete
hérak
gerend
tártak
megadta
szőnyeg
gyakorta
kiépítése
filmsorozat
táblázatban
«
##unda
##ronóm
80%-
over
##ászlót
felhők
hívtak
kötődő
mérhető
örököse
kezdettől
közvetett
veszített
közművelőd
településre
mellékfolyója
##világbajnokságot
##fői
##nád
vog
zim
bald
1843-
colle
felél
megóv
mután
átenged
zeppelin
jelképezi
vállalati
átalakított
feltételezik
hódmezővásár
valószínűség
##idok
hof
fizi
leng
1923.
megem
eladás
weimar
bezárták
nyúlvány
kuratórium
megválasztott
##tre
##alka
##nunk
tox
érc
##széki
ariz
##befoly
baker
mostan
adatait
lakatos
tisztaság
tömegesen
történelmet
településeket
##8%-
##erét
rns
bagd
benzin
fakadó
felleg
karbon
vászon
##ításáról
gondolt
táborba
eredetét
védekező
használjuk
igyekeznek
mitológiai
technikával
##lőr
##máig
##norm
230
mih
##emellett
letette
mondták
sikerek
felhívta
mindaddig
felelősség
különösebb
kitörésekor
építkezések
öngyilkosságot
##itta
##kifej
##hozott
##újvári
kőrös
lábát
petty
holott
filmjét
hónapon
kognitív
külvilág
énekelni
említenek
##iton
##actin
##pilót
kirak
tárol
úttör
##isztika
arculat
hetente
horizont
érdekeit
gondolják
szerették
befejezett
bundesliga
##ency
irén
menő
tűnő
##raktár
alváz
állása
kiképző
munkasz
táborban
rezidenci
díszítették
kapcsolatuk
koncerteken
helytörténeti
##edzs
##omos
giul
kamat
piusz
marija
nősült
grófság
bármikor
hétvégén
hírnevet
játszódó
teológus
hazatérve
enterprise
besztercebányai
##áts
hz
lt
##bill
##eját
##issa
##zetet
soph
szaj
##emikus
vízre
alapít
bevált
aláírta
nyelvei
gyógyító
szárnyak
meghaltak
sugárzott
hollywoodi
oklevélben
##ceae
##pécs
##itású
hajója
karakt
nyomására
pakisztán
helyettese
kiszolgáló
legkevesebb
elefántcsont
csehországban
##hm
##eds
--
##maros
isbn
rept
théb
eposz
imádk
szécs
balduin
kiskorú
kíséret
romlott
objektív
##hadosztály
legelőször
fenyegetett
vizsgálatot
##gér
##elia
##réti
##–189
##csend
savanyú
feljutott
könyvének
állapotba
fővárosában
letartóztat
művésztelep
##enta
##nénk
##orog
chem
fedő
sean
tell
ököl
ütött
##isztáni
##ualitás
jordan
mccart
hallani
elfelejt
igazából
igencsak
megkoron
ábrázolt
##színházban
hosszúkás
sérülések
állománya
szervezője
elhelyezked
kiterjedése
##lc
##aza
##ütő
##béri
##írus
tea
##ernél
##ányán
##újvár
orle
##kápolna
tokiói
gerjeszt
korszaka
mellynek
visszalépett
törökországban
##fir
##imi
##wen
##hiba
rus
kocsis
##etéseket
##telenség
tanulta
ismertető
készítése
optimális
legmélyebb
rögzítette
szervezetben
tengerészgyalog
##kab
##–40
##odont
##padönt
1889.
genom
##ásosabb
porcel
szíria
territ
vénusz
##acsoport
##tartalmú
elegáns
regényét
közösséget
találkozásánál
ms
##idzs
##nitz
##ilius
##olányi
jeges
##íthatók
hunyad
nyilas
makedón
öröklőd
támadtak
szükségük
megszökött
##%.
##50-
##erner
##calais
##járműv
csúsz
moson
terry
tompa
felejt
tárták
##helyiség
munkájuk
illetőleg
legtöbben
üzemelteti
szembeszáll
törvényeket
##ench
##holt
##ermék
kímél
kövek
##kupában
##viselés
nálunk
rakéták
szaklap
operatőr
évtizeden
ismételten
mindannyian
tartózkodása
törvénykönyv
parancsnokává
##ät
##romb
##aföld
##ükről
agyi
félt
1832-
karth
meszsze
legendák
itáliában
szakított
alkotmányt
megmutatja
végállomása
nagyközönség
ragaszkodott
autóversenyző
β
##ocz
tih
gett
pompei
csupasz
hercegek
varázsló
országrész
szolgálata
tulajdonképp
sugarasúszójú
##aia
iso
1888.
1895.
mitch
kolóni
jelenséget
objektumok
írországban
ged
hus
##ebook
ming
kötik
##levelet
dobott
kassán
képzel
vegyen
óbudai
##rendezés
frontra
nagyeny
perényi
vehette
##gyakorlat
boszniai
látnival
részével
döntetlent
együttessel
parlamentben
összesítéssel
##mur
##zig
felhő
##ációnak
improv
kanizs
##ermellék
idegenek
vendégszerep
##hab
##tim
bec
know
vicc
##olások
témák
évről
prince
##bajnokok
berendez
találják
érkezése
##értékesebb
beszámoló
pusztítás
nagybirtok
##áfr
##inth
##nánk
##ebből
##hideg
megp
##ójának
menjen
nyomda
##ségeinek
ekkortól
kikapcsol
színházat
világkiállítás
##-3
##dc
ey
##erők
hasi
last
##hangul
csopor
kifoly
milánó
beteges
japánba
levegőt
oldódik
determin
tanulmányt
terjeszked
##adói
##ádok
fbi
##ájává
1934
vélt
kiküsz
mostoha
áthalad
anyagból
sivatagi
szerepére
barátságot
képességét
csökkentése
népszerűségnek
ces
kúri
pisz
grace
lekép
grófok
keretbe
##franciául
airlines
csakhogy
torkollik
elismerték
találkozni
##xc
tím
vuk
##lapja
##uszta
rach
solt
fluor
verse
antwer
miguel
tündér
koporsó
tisztek
lemészár
összehang
hihetetlen
összecsapás
képzőművészet
##6%-
##ókar
##várad
kort
díjra
lebeg
szűcs
##esemény
##készítő
külsej
célokat
etnikum
díszítés
megszervezte
településeken
megállapították
##lob
dől
1861.
köves
state
lelass
trilóg
élelem
karolina
pusztult
tanévben
alakjában
brüsszeli
szombaton
nemzetgyűlés
megváltoztatták
##sson
mck
nof
##nnyel
deep
thal
parók
pontszám
##tudományok
bányászat
molekulák
állítanak
csökkenése
nyugdíjazás
szigetcsoport
##ос
##esh
##ióta
run
##rimin
##ícium
bast
karm
tasz
ludov
tokió
vizét
##ennifer
(1899-
stefan
ötvenes
jegyezte
kupadönt
szokások
földesura
betöltötte
szimbóluma
űrrepülőtér
munkanélküliség
professzionális
##nk
##aná
##túl
##icin
##roit
##ánta
dúl
fás
alma
címlap
halfaj
diploma
önállós
világegyetem
megjelentetett
##koh
pred
autója
egyből
hagyva
ülésén
meghajt
kerékpáros
##84
##tant
##fenyő
hous
##omboly
kirúg
##kutatási
emeleti
magabiz
ismerünk
munkában
időszámítás
viszonylagos
##12-
##ebra
dei
##képek
elmély
meséli
céljára
neveket
dunántúl
felsorolt
kezdeményezte
szolgáltatást
##ны
##atan
now
##ovits
book
conn
hazud
utcák
##csillap
múzeumi
szlávok
nemzetőr
példánya
szingapúr
állapotot
évszázados
tulajdonságait
##hev
varáz
előlép
köpeny
mártír
privat
ronald
tároló
nyomást
##opterygii
kritikát
nyújtanak
betegséget
bevándorlók
elsőszülött
kommunizmus
kényszerítették
##__
##ahi
##eink
##ethe
##zást
##abaúj
##essee
marg
##bocsát
##efélék
lotus
wayne
kőszegi
aránylag
kombinál
kudarcot
ugyanígy
készítésére
konferencián
holtversenyben
##nat
csir
ling
math
csőre
hibák
##zemplén
beatrix
jelölés
kabinet
feltérkép
gazdasága
korlátlan
harmonikus
elfogadható
vándoroltak
##enderd
1906.
blood
bozót
stark
osztályát
ünnepelte
nagyszülei
befolyással
reformátusok
legértékesebb
##azzo
##uber
tövis
guadal
égbolt
leveleket
évtizedes
szerzetesi
##70-
##day
##stra
32.
emp
sms
##apály
hszi
1910.
vonja
studio
szappan
országút
projektet
kosárlabda
megoldások
visszatérése
##fan
##bünt
pig
tréf
##ogatta
##szarvú
##válság
hívők
márta
telén
témát
őrség
arabok
oroszl
pleiszt
járásának
megmenteni
termékeket
családjához
##ра
##ugg
##énál
bub
##csoly
##papír
##redit
cruz
ennyi
nemet
ruhát
fémjel
##elvények
jogutód
##jelentése
terápiás
vadászgép
kormányzóság
válogatottal
##öre
##kisz
tát
##issza
##olnai
##ásnál
kint
kitt
névm
##zésben
1841-
forog
kérdő
éjfél
##elődött
##kedvelő
ernest
vazall
illírek
indítás
schmidt
darabjai
koncentr
elutasították
##!"
##ides
##áholy
eure
earth
toler
utols
lóerős
nyújtó
hiányzó
járatot
egységei
elkészül
impressz
nevezetű
növelték
mondanival
együttműködve
##18-
##főt
##álát
sed
##advány
szakm
##királyi
##maradás
##éseknek
megmozd
megújult
ösztöndíj
propaganda
wesselényi
##bég
##noki
amn
##vania
1896.
jamai
##pénztár
blokád
tornya
denevér
ezekhez
hungary
műtárgy
modellje
felfigyelt
szegénység
összegyűjtött
##63
ké
án
##show
##olgál
##érnök
emmy
vang
##izálni
áttér
##iparban
bakter
szemcs
##alizmust
kondenz
tanárai
előzőleg
élővilág
feladatát
birmingham
hivatalban
##fők
##brand
##kapit
##bolyai
##okodil
évnyi
stressz
erdészeti
iskolákban
##87
##gon
bt
##osse
héj
lup
##onder
elis
estés
szürk
##szigeti
csapás
felség
lucius
klubban
tartozék
újszülött
főiskolára
függvényében
##actinopterygii
##ezek
##inst
##talál
erői
##okonai
baden
sátán
ágyúk
##felszer
##ozatlan
csanád
kompoz
utakat
hajóval
kifinom
kórházi
kritikák
írásjegy
politikát
rendelték
alakulatok
választást
championship
akkumulátorok
##assy
##ilát
##zendő
gött
slov
##pályás
kibék
kánon
helyőr
kiküld
sporte
elvileg
előadta
szubszt
csökkenő
méltóság
tartalmú
sorozatból
##gow
##ión
##tap
##iáját
##törtök
fodor
cement
figyelt
funkciót
hallgatói
történhet
középpályás
##–25
##ique
mén
wta
(175
minor
mérés
##meleged
alkalmat
névadója
jelenetben
bajnokságon
kutatócsoport
világranglista
##riz
##say
##szán
##zása
tájt
##ikának
##pilóta
##iskolai
selmec
karikat
lennének
magasabban
minisztert
szerződésben
##dá
##bag
##asta
##faja
##ondi
cho
##istát
##képet
##társai
pinjin
ízület
ügyfel
elnököt
pokémon
szakáll
sziszek
antiszem
partizán
ritkaság
tervezik
megkötött
##czi
##apcs
##lött
##orge
##szürke
(���,
fején
kilét
célját
honfit
kispad
versek
paraszti
##dnp
##tex
##orék
##újság
##inform
hajtás
szerve
szuver
hungária
megkérdezi
indoeurópai
határőrvidék
jelentőséggel
elpusztították
##193
##bok
##kei
##uru
##ozói
őst
bonn
illy
1886.
1894.
alpok
vegye
##építési
sarkán
square
(2017).
hidraul
kifejező
királyhoz
megbukott
töltöttek
szerződése
irányították
szervezetének
##emb
##ević
dil
duk
srí
##uville
1884.
maláj
vegas
viseg
claude
history
sanghaj
kicserél
kiegészítve
kolostorban
többedmagával
uv
##enge
##utam
##vánd
##zelt
##ágyú
korú
1893.
szőke
viasz
elérve
minnes
szamur
újítás
bukkant
szavazat
forgalmat
többszöri
életrajzi
fenntartása
szakaszának
##sző
##ways
##űzés
pho
sod
##akhoz
1921
1931
bőve
fium
kill
##rogram
gaszt
octav
utcát
burgen
átadás
academy
castell
litvánia
beethoven
elemekkel
leszállás
háztartása
választása
finnországban
##arum
##esre
##inok
##ükbe
tőz
##nevén
dest
like
##hangja
##inszky
jómód
tiber
##ellátás
##istának
bezárt
megker
hajnali
tönkrement
módszereket
középiskolában
##orb
##oine
##venni
##forrása
hármat
##vizsgáló
külföld
álnéven
élettel
##vizsgálat
kalocsai
diósgyőri
hatalomát
hatótávol
meghívták
projektek
templomba
vezetőjeként
költségvetési
г
##mün
##ódy
3:
33.
hap
lut
##harma
denn
keit
##kocsik
alber
azokra
dombon
habilit
okoznak
minősége
alapítása
nyugdíjaz
okleveles
tárgyalás
reményében
átalakítás
bizonyítani
tapasztalható
σ
##aya
##inyi
##ippi
##kosz
boz
báj
diam
hívő
magv
vemh
ételt
étrend
kalapács
helyőrség
kiküszöböl
pravoszláv
szakközépiskola
##udo
##hara
##ágyi
##atoes
##bejár
20%-
copa
neum
volk
##gerinc
csáng
##illeszt
consul
kezeli
medici
##alizáció
bűnügyi
fedeztek
kezdetleges
mindemellett
##16-
##los
##wang
dod
vák
##antes
##itter
1925
mord
##közeli
hídon
haltak
újkori
hátrált
esőerdők
kérdéses
mélysége
nyomozás
szándéka
feladatait
népszerűek
fogyasztása
megvalósítani
##lis
rés
##aikkal
##produc
##kedvelt
körébe
levente
szabadkő
implement
szegények
##jos
##benz
20,
kus
puy
##estra
##ománc
##özött
##eszterg
kívánták
sikereit
csillagot
##alin
##arra
##jani
##ínia
(20
##kárpát
##stúdió
1892.
óvoda
trolib
érzése
##ulásával
keresik
műalkot
sztrájk
témában
tetejére
adjunktus
nyelvjárás
bizottságot
megalapítója
politikailag
megbetegedett
társadalomban
##lek
##hall
lily
##ességű
##viselet
kiállt
##ezésének
orleans
aminosav
tengerbe
teológia
viseltek
építésének
évfordulójára
görögországban
##73
1929
arén
diff
venc
##ivitás
1891.
##műveket
alajos
histor
walker
emánuel
megküzd
másokat
normann
elemzése
uradalmi
várhatóan
##idó
##ovec
hírű
##bizott
##ésüket
dalhoz
felhat
wright
##festmény
##kritikus
mögötti
kézikönyv
líceumban
vetítette
specifikus
##74
##űző
##noka
ach
##amint
##epülő
##órész
goth
hozó
##jeiben
rozsd
felétől
agglomer
dzsungel
emlékművet
kombináció
potenciális
##kk
dion
árok
##áraszt
apjuk
hiszt
later
nőtte
üzemi
világát
törölték
hegycsúcs
vállalatot
felismerhető
egyesületének
sag
##illip
elme
gyöt
1905.
##itással
vádolta
vallások
fekszenek
színművész
újjászület
bocsátották
tervezőirod
képviselőház
##92
##ør
##nyúl
0,5
##frank
##üldöz
mott
pfal
közte
tommy
##feszült
nadrág
hasadék
hosszút
vezethet
rendszerbe
állattartással
##attá
cook
edit
ince
roch
##döntőt
##elyett
##ényben
bruno
hetes
santi
korább
nőknél
szorong
veresége
megszűnik
kiállított
regényében
szolgálatban
nyugdíjazásáig
##eer
##itan
eto
1916
gers
##alízis
ivóvíz
leküzd
##enciális
keretén
megszeg
mississ
porsche
vonalán
einstein
feladatk
mintázat
szakfolyó
iratkozott
természete
megszállták
nyilvánvalóvá
##gep
##iao
##urm
13,
##ebbek
##erior
(��,
bret
fund
1809-
1883.
bourg
dalmát
heidel
osztva
rozsny
zsinór
dalának
feketék
mindmáig
felhasználták
##bol
bm
##beny
##kort
##szka
##usta
##ázik
##ession
vince
engedi
express
georges
felébred
többségi
dialektus
gyengeség
marseille
alkalmazza
csoportnak
kinevezést
növényeket
zenekarral
bizonyította
megkülönböztet
##dl
##60-
##itas
##iván
##rost
##ólia
##öltő
nou
##ainál
gamb
##olással
gránit
harmon
házból
svédek
felülete
leverése
merőleges
hatalommal
transzform
kibocsátott
bajnokcsapat
szatmárnémeti
##pc
trap
évét
fokoz
misszió
##általában
tragédia
tévéfilm
boldogság
vizsgálták
afganisztán
tanulmányozása
##ograf
1932
fogak
kutyák
princi
múltban
elfogadni
helytelen
leszerződ
nyelvcsalád
találkozunk
tulajdonságok
##abból
bamb
##szeged
1790-
rezső
ultra
citrom
sailor
birtokok
##elsősorban
alkalmanként
##csig
##odot
hex
roc
##astag
kung
##ájáért
##nemzeti
edmund
készíti
##maradvány
##ügynökség
fasiszta
tomatoes
szilveszt
megépítése
szereplése
kecskeméten
szabályozza
tizedjegyzék
##iu
##gek
##vay
##lások
##anyaga
felír
marin
nicol
##féleség
másként
méretét
vizelet
kiemelve
kikaptak
mozgalmat
##ürk
fúj
##eddig
##férfi
emer
képi
##károly
stras
ágának
##ezésében
##feltétel
kitalál
rektora
koordináták
##anu
##bul
##iza
##agor
##távú
cle
kany
midd
##párizs
##üléses
eresz
győzni
lenyom
vallja
divatos
kőzetek
oktatást
primitív
karaktert
várkastély
pleisztocén
templomának
megszerezték
tevékenykedik
##aub
nú
##ékat
lóg
##farag
##inder
##javas
##zőket
##őkben
1849
okai
arche
faluk
harap
kiírt
##ematikus
##ossággal
##rodukció
##ítésekor
ahelyett
tervezője
támogatják
házasságköt
ptolemaiosz
ellentámadás
##aud
##uba
imr
1300
##erdami
boros
##hatalom
alapot
dombormű
eleonóra
mobiltel
##felhasznál
kimutatta
felajánlja
szobrászművész
##eš
##uš
##fiai
##ornak
krém
##olásra
##ítógép
sayid
ápolt
erdődy
hívnak
krassó
mecset
felerős
kontext
rituális
kötelesség
csökkenteni
tizenkilenc
afroamerikai
##ági
4,5
##inois
genf
adriai
futama
szolid
folklór
nyomait
otthoni
campbell
barlangot
bevezetés
megnyerni
holokauszt
tizenegyedik
megvalósítása
##aco
##cart
dráva
julia
vonak
direkt
dátuma
híradó
veneto
befogad
októberi
pókember
##pályaudvar
léphetett
nyugtalan
australian
népszavazás
szárnyfeszt
legkiemelked
hc
áv
##arca
##ours
##pard
cun
##torna
free
robb
tomb
##london
bogarak
szállást
államnak
szállítás
széchényi
látogatása
szempontok
alapítványt
féltestvére
érdeklődött
funkcionális
csökkentették
##zé
##mem
##ásk
mb
gibb
sírt
##eikkel
##enheim
1750-
found
lövés
portr
##váltást
amitől
hangzik
szemében
számláló
gyakoriság
ismertette
kompromissz
királysághoz
megtermékeny
önkormányzata
##őrű
alud
##ánszky
perry
sorát
autógy
hiphop
kicsik
fivérek
januári
diplomata
megtörtén
eljárással
##szerkesztője
beleegyezett
feltételezhető
tehetségkutató
##ázva
##passzt
1890.
akvári
koncer
krokodil
módszere
oszlopok
színezet
bányászati
tanúsított
vezetőjévé
hidegháború
tekinthetők
előállítására
házasságukból
##ilon
##oman
##zati
##éltó
##profit
sínek
antibi
berger
leírta
kiszáll
szekven
életére
szezonra
számítva
koalíciós
engedelmes
politikáját
##aca
##edel
böl
##eland
##ösvény
1902.
kkstb
##ristály
asztalos
hovatart
olvasott
szelvény
thriller
kisközség
védekezés
éghajlati
űrközpont
##gyógyászati
végállomás
magyarázata
összeomlott
főmunkatársa
selejtezőkör
##ded
##lős
##rica
##alban
##hardt
ágak
##berlin
##ítsanak
##öbölben
káplán
életév
##hengeres
szobrát
viselet
hírnevét
sérülést
rabszolga
vizsgálati
kaliforniában
születésnapja
afc
##íciai
röpl
teat
##oszkóp
grande
mogyor
szicíli
időszakos
bajorország
megváltozik
fejlesztettek
##mph
##dale
##riát
kőr
##gotth
##iktív
##mouth
lyon
##ségből
kézir
mount
címért
marian
lemezre
borvidék
megyéhez
mozgását
építésére
fennállása
viselkedik
átalakulás
háztartások
megtalálják
pusztította
##ол
csí
##lését
##tehát
##lábúak
erkély
jászai
master
súlyosb
áldozatul
gyártásában
érintésével
összesített
szépművészeti
##eca
##alon
##chus
##eria
##vern
pab
pay
rúd
sib
##ekkora
elegy
rátám
kolumbia
felszínen
kritikusa
egységeket
erőteljesen
gólkülönbség
tartalmazzák
legkiemelkedőbb
##61
##inen
##mers
buc
##malom
##vessz
évelő
knight
alakuló
balassa
fészkét
nicolas
valósul
elmagyar
kirobban
lányának
főispánja
nyelveket
szakértői
felépített
kertészeti
elsődlegesen
mássalhangzó
hasonlóképpen
##71
##öpr
##nick
##stól
##szük
##ókör
##attle
##naptár
1881.
flash
##ezzenek
elfogy
pavlov
szentté
hiányzott
##10,
##iat
##lop
óz
##ipsz
##olád
##pret
izz
lah
1770-
figura
hódító
ősidők
cartoon
##állomások
csokonai
feudális
jennifer
összetev
újjáalak
eseményei
istvánnak
közelsége
##:00
##ades
##endy
##jelet
állva
avatta
bírnak
okmány
verset
bírálta
trianon
trónját
kimondta
megbízta
titkossz
gólpasszt
szerelmét
székelyek
képességei
infrastruktúra
kulcsfontosságú
##agyár
##andra
##úzott
orom
##ereket
grass
ultim
bodrog
igénye
lepkék
minták
evangel
dalmácia
szamuráj
örökzöld
seregével
virágzott
elsüllyedt
felhasználása
##sug
iul
joy
kang
##állást
##albumot
platón
##ológiával
csatornák
megszállta
előállítani
erősítették
##ña
##9%-
##osta
35.
##karol
##piszt
##tartás
1887.
##alizált
márkan
módját
szatir
whisky
kamaraz
maurice
páciens
épületei
összeolv
testvérét
rendőrségi
testnevelési
köztársaságban
##tir
##ránd
280
gyal
nekem
##izáltak
##lásának
álljon
albumra
emberre
bronzkor
növelése
kiterjedő
összetart
gyalogsági
repülőtéren
##urc
##unes
bony
##kultúr
arkan
cserk
gének
honda
janet
kezdik
queens
##kategóri
színnel
theatre
döntötte
szekrény
ünnepély
avantgárd
jegyezték
sztenderd
szuperhős
takarmány
fenyegette
magyarázza
nyelvészet
##evo
##gás
##emer
##oval
650
bük
mók
##ségbe
cegl
gépi
kisgazd
kukoric
késlelt
paradox
villers
pszichoan
depresszió
megosztott
szállítani
##49-
mec
##szerda
1904.
zseni
bízott
földek
lovagi
csinált
felkelő
megkapja
tüntetők
kiszolgál
nevezhető
konfliktusok
##agna
##rika
hut
##achim
##gomba
kirk
(...)
1901.
szőtt
profit
silver
vízhoz
örökre
##természet
##ájékoztat
elöljáró
szerepük
megbocsát
koronázták
zenekarban
ds
acc
##ammad
##sdorf
emel
##eredet
néhai
##ásaival
alpesi
előzte
iratok
árnyal
szentek
megtudta
paraguay
felrobban
technikák
hatékonyan
irányzatok
nézeteltér
magyarázatot
processzorok
államosították
vezérigazgatója
##iley
##teng
csaj
káll
orlé
fővel
bárány
haldok
tojást
##összesen
kereslet
tanítani
fegyverrel
megtámadja
szavazatot
szeptemberétől
đ
##ázi
##örd
##ilei
##nyíl
##árda
são
##arthe
##vizet
neil
radn
##fajták
sikló
##egysége
kárpót
lövöld
erősíti
indulva
megoszl
szőrzet
vidékre
charente
döntőhöz
főtitkár
tengermellék
laboratóriumi
##rea
##cont
##itch
xen
íze
##eszik
1924
csáp
##edésbe
##ációra
franch
szülés
járható
szennyv
értelmes
hátrányos
keveredik
mezopotám
spanyolul
fennmaradó
együttesben
programokat
tiltakozott
miniszterelnöki
inz
##aiért
##bereg
##áttal
kurz
1907.
trükk
lakost
nagyok
őrizte
filmhez
elárulja
erejével
megkérte
fokozatos
tábornokot
fennállásának
##ubl
##ondó
##zsuk
cpu
kassz
midőn
higany
montré
szürre
##elektron
##sorozata
filmjei
tisztét
örökölt
alkoholt
festetics
színházhoz
vezényelte
elhatározza
gyógynövény
jutalmazták
visszavonulása
##esa
##incia
##teret
baby
brab
maja
##ipszis
sümeg
fiókák
hormon
azokkal
otthagy
##gazdálkod
megőrzés
zenekara
cselekedet
előcsarnok
járműveket
ugyanilyen
kandidátusa
kandidátusi
kisebbséggel
##lalk
faf
gav
sieg
boksz
dante
elérő
szóviv
##álkodott
gyárban
évekbeli
fesztivált
feszültséget
rendezvények
born
1834-
freud
revol
horgony
elhagyni
istennek
érezhető
##szövetségi
anyagilag
mérkőzésre
összetűzés
bukarestben
fontosságát
veszteségek
lehetetlenné
szárazföldön
szentháromság
elhelyezkedése
##izom
##nünk
##ényt
##üzér
##illant
jólét
kapni
##szintén
mikrop
értett
említés
intézménye
elterjedtek
előállítása
gyakorlatot
nevezetesen
##aló
##eid
##mens
rid
##marck
##sorok
##ősibb
moss
pánik
disznó
ötletet
folyamata
központot
páncéltörő
gimnáziumba
sérüléseket
következtetésre
?
##sont
lás
nác
övé
##ehely
búza
hoch
mali
unix
1835-
rabbi
rabló
ívelt
mintát
horgász
megölni
hosszanti
elektronok
repülőtere
távolságban
tengerparton
államvasutak
##").
##illé
##ovac
##szép
##ánai
bén
##hidrox
break
serie
lejjebb
hajózott
sopronban
tanácsára
üzemeltet
egyetemben
tanúskodik
norvégiában
megyeszékhely
##kard
ins
##nyelő
##piros
trig
trip
1885.
avarok
kisfiú
turner
##egyenlet
##gyógyász
egerben
hétéves
tagadta
kerestek
viselték
kétharmad
közoktatás
fenntartott
keletkeznek
élettartama
##bia
##uga
##ción
##urus
apá
##ikára
##ükből
baba
gest
sign
fejez
lábon
szlov
remete
öntött
megzavar
szemtanú
átlátszó
részletek
szeretője
vándorolt
##egészségügyi
változtatni
színművészeti
megrongálódott
vadászrepülőgép
(†
bj
38.
gonz
fogta
mátra
azokon
indust
láthat
nagyap
szeben
értékei
kazahszt
legősibb
oktatója
városrésze
felkeltette
szállította
településrésze
##enh
##oga
##alag
##ming
rin
rup
##afilm
kakt
##őképes
alepp
magam
véghez
újbóli
##tatására
értelme
hangokat
##felvonásos
frontember
jégkorszak
stílusában
páncélozott
társszerzője
##farkú
##marie
1912
31.)
##adékot
##ebarát
1882.
autós
gamma
javar
kozma
támog
álmod
összt
##foglalk
lejegy
rimasz
vásárt
csatára
darabját
férjének
kivándor
közölték
távírója
vitorlás
visszafoglalta
##elű
sex
##atops
##ković
chile
##üspökké
cseléd
fiktív
tűnnek
bejárta
képzést
drámaíró
kultúrát
kiegyezés
leválaszt
kísérleteket
fejlesztésére
##–13
##arti
##jele
##áncs
ohio
vern
##erővel
##hatóan
1909.
elhód
##röviden
manche
rezsim
megmenti
szénatom
endemikus
időjárási
hiányosság
intézményt
középszerű
ábrázolták
helyezettek
naprendszer
elektronikai
py
##gyull
##ódások
aisne
filip
kirab
károk
pacif
##nyilván
orléans
elküldte
keményen
specifik
templomi
törekvés
érsekség
igazságot
kilométert
nyíregyházi
jégkorongozó
##ów
##sin
##uóz
dö
##olok
##szir
hey
dort
nasz
rené
rendű
##esedett
oszkár
mentette
csatahajó
juttatták
nyújtotta
ügynökség
felkereste
együttesnek
gyakorlatok
kah
kiüt
##játszó
##vártól
haydn
loire
méhek
rezon
##borough
sírkam
tolvaj
turnéra
dolgozza
erotikus
hosszútáv
felhasználható
mf
320
ris
##opera
##iction
falat
ötvös
beállt
reflex
tárolt
hazájába
huszonöt
kisebbik
mezőnyben
rövidfilm
épületegyüttes
##500
##chia
diz
thé
##eczky
##immet
lamb
talm
##megyei
##párbaj
1805-
falon
felix
kiseg
válás
sebész
##leveland
alapelv
roberto
államfő
újszerű
négyéves
robinson
tárgyalt
asszonyok
támogatói
elbeszélés
emberekkel
sorozatnak
fordították
intézkedések
vöröskereszt
##/3
##úvó
jab
##felül
##isban
lane
retor
thomp
##ligában
fogták
planet
texasi
belovár
emlékeit
navarrai
állomáson
megtéveszt
programban
szerkesztői
létrehozására
róka
verz
deklar
lélekt
bajnoka
alekszej
##termesztés
korrupció
akadályozta
##wo
##apor
##inch
equ
##lapot
##saône
1903.
antio
salvad
termál
napokon
beceneve
elkövető
megtenni
írásában
hadifogly
hajnalban
kapcsolatai
szabadságot
##odid
202
##nyújt
##sanak
clar
arbor
szeld
etrusz
képtár
manhat
divízió
falutól
érzelmek
diktatúra
elvégzett
eljutottak
inspirálta
formátumban
instrumentális
##vor
##adai
##ónus
tarn
##püspök
songs
tölcs
ágyút
boston
interc
sparta
turnén
tyrann
átadja
óvatos
részese
kikerült
konstans
alkalmassá
elmondható
hátterében
ód
##nevű
##erikus
kifelé
brabham
antibiot
krónikus
margaret
prímszám
állapotú
alosztály
emlékirat
gyorsaság
ligájában
felépítésű
külföldiek
elismerését
küzdelemben
mitológiában
narancssárga
tulajdonképpeni
##vért
##–192
dul
##ector
böjt
sara
##nagyőz
##illetve
nyereg
okirat
keringő
küszköd
másképp
zónában
helyzetű
alapterület
gyermekkori
összefüggés
bc
##long
##obot
##ovin
15,
esp
iph
##fázis
##méret
##öknek
plety
schne
##esebben
bekezd
buenos
##atherine
##thálózat
igénylő
utazási
szabályozó
működtetett
gyermektelen
##ussia
1927
##ermann
##fertőz
##ámadást
gyárat
napsüt
utassz
végzet
chicagói
dimenzió
előnnyel
támadásra
ellentétek
##gues
bárói
levon
várták
andreas
szállták
videoton
próbáltak
ellenséget
sportegyes
##székesegyház
szellemében
alakításáért
##ehid
##john
##atoni
1926
tong
akkád
estén
genet
##vándorl
konszt
hargita
atlantic
european
halomsír
hőmérsék
anyakönyv
segítenek
tartozéka
ellentmondásos
kló
pát
##énnyé
##angelo
##castle
hozat
mérési
osztag
##asszikus
erőkkel
gilbert
mansell
műfaját
várossá
epizódot
nürnberg
százezer
értesült
identitás
távolabbi
meglepetésre
válogatottnak
##csák
##leng
1%-
mikó
##gyárat
##vissza
esnek
gázok
írnak
##görögül
##játékok
kambod
megyer
egyhang
szószék
változók
melyekkel
birtokokat
elkészített
foglalkozás
állapotában
##98
##ölni
duó
edz
vag
##jelek
lika
lelke
párja
feltev
dandárt
eljutni
gátolja
lakhely
nyílnak
kivégzés
versenye
megszállása
rendszerének
összeesküvés
##cot
boc
ifi
##ignon
##islav
##ázása
##ériát
hild
shad
káosz
rohan
dobogó
fentebb
forgách
vezetni
##változtat
brothers
közönséget
versailles
állítólagos
nagyhatalmak
##51
34.
hed
hisp
alább
kajak
angolt
chilei
forest
szimul
collins
pénzver
szokása
torpedó
felismert
feltárása
magasságú
barátaival
kialakítani
massachusetts
##ónál
##ítjuk
1928
cost
gros
1897.
beágy
direc
natal
eklekt
máriát
pillér
státus
kínálat
patakok
##kollégium
gyártani
énekesek
terjedtek
tudatában
másodperces
specializál
közelmúltban
megjelenésének
jeg
pór
ött
carr
kiot
ölte
##évente
adjon
evaku
##dombság
ekkora
malcol
értjük
folyami
tízéves
névtelen
törvénye
karaktere
terhesség
jelenlétét
képződmény
##ел
##aqu
##kij
bush
jüan
korát
speed
##oldalon
hadvez
kalifa
##ombatban
bolygót
tisztje
antonius
fájdalmas
versenyét
##buk
##tom
##emia
máz
##ciszt
sall
yard
##arabul
##harmada
garros
rábesz
##tartalma
zsarnok
gödöllői
hegymász
tárgyaló
alezredes
evolúciós
fenyegeti
nyomvonal
szülőfalu
szállítási
érvényesül
képzőművész
szerkezetet
felhasználni
bmw
hbo
loj
##puter
##színe
##érzés
bowl
görd
zsúf
##hajója
1814-
euler
hunok
württ
kezelt
körrel
sertés
talajt
átvett
##öltöztek
##település
másfelől
bevallása
tisztázott
metropolitan
polgármesteri
##avaz
##walk
40%-
prés
##szkaja
kékes
multi
tehén
##isztens
megfiz
megmunk
darabban
pontosabb
zsinagóga
utasítások
kifejezések
örményország
##dek
##jöv
##enix
##etős
##szava
##jukkal
prága
futnak
zólyom
##etlenség
téveszt
elárulta
szénbány
térképén
tennessee
társasága
hatalmának
támadásokat
meghódította
nagykövetség
##188
puh
##elben
##ionok
1922
apok
past
##jukban
adózó
field
volta
##esebbek
hellen
partjai
reformok
hangvételű
lemondását
letölthető
függetlenné
hozzájárultak
##jang
loth
##zászló
fajai
rítus
corvin
tudomás
üzemben
katonának
örvendett
##rio
##ézi
##óst
műt
##íttat
unic
##guinea
##szeret
levez
##íciókat
foltok
gabona
hajóra
neolit
kezelte
membrán
rajthoz
megkövet
szibériai
elfoglalni
harckocsik
ausztráliai
##mács
ják
##lásra
##osszal
elrag
őslakos
##udományok
alapozva
részhalmaz
földterület
kompatibilis
évszázadokon
kialakításában
##rög
yu
zw
##ecta
##grand
cris
tech
bővel
maine
romos
##ferenci
cirill
etikai
konvoj
köztud
melybe
operát
benépes
munkába
mesterei
közkedvelt
feltételeket
lengyelországi
##fülke
##lakók
##ájától
(���)
spenc
képeit
sportt
monitor
oldalsó
átadása
##fejlesztő
kerülhet
nézőpont
pilótája
virágzik
táplálékot
figyelmezteti
##94
##olty
##bazil
##zenét
kost
mosz
##szanak
##vételt
emeli
peres
##itásának
hangnem
mozgása
szimpat
##orientált
lépésben
meggyógy
szobában
churchill
családdal
rendelete
megegyezés
szövegeket
sötétbarna
konföderáció
##kp
##idea
##ujjú
##anger
hárman
házast
műsorra
asszimil
hordalék
magdolna
porcelán
kultúrában
percenként
prefektúra
forradalmat
láthatatlan
megegyeznek
##ет
к
14,
vod
(182
baja
zent
##gyerek
béket
diszt
guatem
jobbik
békében
giorgio
emeleten
határain
részeken
növendéke
provincia
együttható
visszacsat
##szervatórium
befolyásolják
rendszerekben
##ísz
##ésért
rein
stim
falur
zeusz
##estvére
freskó
german
harold
kapuja
bismarck
francisc
fokozatát
hasonlító
elhelyezve
felépítmény
##kezű
bio
##essor
##nézet
##opoda
##rohan
fiat
lelt
1427-
kötni
paraz
rakja
metall
példát
térnek
##oztatott
üzemmód
amenhotep
ismétlődő
jubileumi
kötelezte
kisgyermek
37.
kür
##zatát
vass
1825-
lencs
néptánc
vagyont
division
előretör
képződik
uraságok
árfolyam
regényének
központjává
változtatott
##xd
mv
ém
fly
raz
##index
##akciók
esküt
felve
march
stern
##katonai
amiatt
andrej
darwin
okozva
##uradalom
demonstr
városhoz
problémája
szintetikus
keresztelték
filmfesztivál
parancsnokság
példányszámban
##"),
##irend
##kőrös
##édzser
##szárnyú
android
phillip
egyházfő
frankfur
követtek
építenek
##eredetileg
aranyérmes
fényképező
környezete
ht
##afür
##amey
##edia
##hova
##ople
36.
síp
wer
##ájána
##öszön
anak
kuny
lepl
vánd
zöme
##gatták
##ingeni
small
szele
diákja
jártas
##koreában
küldési
harrison
istenség
műemléki
elnöksége
intézetet
lemezkiadó
montenegrói
lehetőségeit
##pak
##lató
##ucin
től
##insav
##kában
##lovag
##vezet
##debrec
##pályán
talap
kártya
kíséri
marton
krakkói
részvét
##büntetést
kisebbek
zsinaton
szervezetnek
tevékenykedő
növekedésével
##yx
##urb
##igné
voy
1100
dmit
talk
##aváros
##oppant
1898.
kávéz
népet
rangos
válása
falakat
houston
metafiz
hajlamos
magáénak
alexandra
elképzelt
vidékeken
vízilabda
gyártmányú
magyarázható
ş
##adag
zor
##tisza
##óvári
(178
##összet
1899.
fuvar
ügyes
##artalma
formái
iránya
lőttek
szemet
csillap
##csoportja
dániában
felirata
munkácsy
döntőjébe
középfokú
sorozatát
védelmező
vezényelték
mesterségesen
##lus
##időt
##sten
##uktív
##hatású
##kolimp
1880.
arcát
máris
hurley
vittek
flottát
jeleket
gyereket
végzetes
humanista
törekszik
alkalmazva
autóbuszok
nagyközség
következtek
termesztett
##wh
##ța
##győr
vos
##idész
kalk
nőül
kenny
kerti
##ajándék
miniat
homokkő
beépítés
izgalmas
elkezdtek
ellenszen
járatokat
nagyobbik
elkerülése
értékelése
harmincéves
##oby
lö
##lelő
éhín
1500-
lefej
vokál
##regények
ellátni
történett
barátjának
bontakozott
megállapítani
munkatársaként
##hos
##elyű
##szók
peg
##couver
holló
ornit
osztó
sofőr
##újhelyi
canter
klubja
legvég
precíz
cameron
túlsúly
legnehez
spektrum
nagyanyja
ellátására
##cks
##ucs
##xon
##iste
##mant
aub
jes
##házát
faji
kitéve
##ciformes
cikkely
##szigeteki
madárfaj
emlegetett
szabadelvű
szatirikus
univerzális
basszusgitár
##cet
##abol
##ogur
##rest
neb
##ádium
cult
##izmusa
1873.
csord
adrian
mehmed
munkat
partok
period
frangep
##tanulmány
dortmund
muhammad
thompson
vatikáni
krisztián
melbourne
szavazott
csíkszered
elődöntőbe
megalkotta
meghívására
gondoskodott
##ezis
vekt
kakas
nyaka
borost
periód
plaszt
sierra
szálak
masters
rangers
verziót
cleveland
vezetőség
tekintenek
hivatkoznak
felgyújtották
##ésnél
##öldök
0,00
1400
istene
plakát
melegebb
testének
kielégítő
sakkolimp
magazinban
spanyolországi
magyarországról
##.);
##–50
shi
##része
0,2%
hágó
úrnő
1786-
célzó
torre
barázd
kiadók
##elésének
könyvel
lekerek
diósgyőr
kérdésre
vegyesen
hasonlóak
kontraszt
vezetőjét
kormánynak
iskolájában
megközelíteni
##py
##gaz
##esis
##oste
##ekció
##iánus
mozz
##attyús
##éville
ahmed
bőven
demon
lajost
watson
egyezik
fejtett
hullámok
meztelen
darabokat
tervezése
megkezdett
egyesítette
értekezését
határozatlan
##53
##ße
##riss
##ászi
##–188
cipő
lapp
gross
barany
beutaz
ritkább
engedett
haladtak
kultúrák
szünetelt
tinédzser
vérnyomás
szerbiában
zárójelben
koncerteket
##ми
(0
aul
pix
sad
##ányér
kens
mccl
1812-
guard
isaac
pálos
torok
keresték
élettani
házigazda
máramaros
mississippi
népszerűségét
##intól
elle
klim
okos
1774-
babeș
uralm
kamasz
kicsap
##termelés
kompenz
malcolm
sokaság
elítélte
kifejtett
űrhajósok
hullámhossz
kimondottan
alekszandrov
kifosztották
megpróbálják
összeköttetést
δ
##ásan
bód
##apárt
##álásra
1833-
murak
bombat
jómódú
foszfor
földgye
service
regényben
támaszpont
uralkodónak
##hé
##kg
##vász
bian
fríz
pezs
savas
formál
máskor
privát
immáron
ismétel
lászlót
párzási
generális
hadjárata
mitológia
terjedelm
népszerűbb
letelepedett
kezdeményezett
##itúd
amf
cod
kau
##anton
abra
1789-
perform
döntését
püspökké
maradandó
ideológiai
lettország
hatékonyabb
leegyszerűs
##15-
##wal
mok
pör
wes
tanz
##rakéta
##öszönt
1810-
1876.
felle
létez
##izálása
hebrew
várják
áramot
theater
tudását
őrizték
legyőzni
nyomában
##zárójelben
helyszínt
síkvidéki
hozzátette
villamosok
berendezése
erőforrások
felváltotta
szövetkezet
gyűjteményes
##ivá
##uez
##otti
híg
luz
##jukon
csír
ferg
bérbe
alfaja
líbiai
megtap
elszáll
macskák
alkotója
beszélik
mongolok
szimfóni
felületét
időszakból
megállapod
területről
##szabadságharc
felszabadító
##mt
##det
##nix
##ovot
ate
dos
hak
30%-
côte
lépő
must
pros
evans
izsák
járőr
##laurent
átment
macedón
színben
színkép
átvétel
erdélybe
meggyőző
négyzete
szelleme
hangszeres
tudományág
jelentkeztek
##űrő
##inta
kuv
lösz
plut
##christ
##június
##ípusok
idéző
kupola
legmeg
louise
szelet
vázlat
##labdarúg
utaztak
jánossal
krónikák
barlangja
földműves
kapaszkod
kritizálta
munkájával
vízvezeték
ble
##írást
axió
joan
luna
mest
sept
##ársony
1868.
ervin
fjodor
minket
rejtek
librett
britanni
megnyitó
szponzor
érzékelt
filharmon
megvédeni
távolsága
festmények
százalékát
elképzelések
##52
##haw
##csei
##ovna
swe
##orján
viol
wehr
brist
főnyi
üzent
##időszak
##izálják
formul
materi
pénztár
anyjával
garfield
##berendezés
kétnyelvű
követelték
templommal
állatvilág
washingtoni
befejeztével
metróállomás
##viii
##övek
270
ltd
demó
hőse
álma
ferde
ikert
elének
népies
várnak
athleti
kerülte
növelni
elmeséli
lefoglal
kezdőként
csoportjába
elkészítése
intervallum
különlegessége
##szlav
##élete
mala
bayer
hills
hétfő
klubb
ígért
##iájának
szakad
válhat
főesper
csokolád
hegyekben
jobbágyok
szembenéz
királyának
szabályait
tengernagy
tiltakozás
1,2
##adapt
1700
bárt
dord
légy
bírta
duett
ralph
lakást
norbert
szigeti
keveréke
meteorit
beosztott
egyenlőség
gyümölcsös
kifolyólag
napjainkra
döntetlennel
kiemelkedően
##sat
##idad
##oise
3:0
##csepp
##oszon
##roszt
juli
tyúk
vívó
élre
chuck
kezel
tégla
konzul
kurzus
remekül
szepesi
mahájána
viselnek
beállított
átnevezték
környezetet
törvénycikk
technológiák
##qui
##uty
alab
súrl
gótok
lézer
##koncert
##ítetlen
előnyt
gyűrűt
részről
tesztek
javított
alakítása
hollandok
rendezése
részecske
gondolatok
technology
visszafelé
kárpátaljai
köszönhette
##dik
##gam
##dalt
***
úri
want
##atosan
##kápoln
falun
makói
adalék
colleg
ógörög
fehéres
florida
csapdába
kedvelte
ligakupa
kalandjai
oklevelét
szerephez
velencében
minőségében
hosszabbítás
közszolgálati
összefüggésbe
##ité
curt
erny
serd
ókor
fészk
##állvány
antenn
atomok
komédi
pétert
sürgős
zártak
csapást
csúcsot
demeter
elérnie
faluból
fogyott
lombhul
lépcsős
theodor
felfogás
részesül
szárnyai
csütörtök
bölcsesség
##ăr
##mil
ai
hf
ars
reb
##ezres
##vette
neme
##taamey
##erőszak
beérkez
interna
vásárol
dicsőség
fizettek
kultikus
sárospatak
megalakította
visszavonulás
##11-
##orló
##örte
##iness
##filmes
##miskol
1878.
díszt
riaszt
sógora
rendelő
simpson
harcolni
leírását
összeszer
fenyegetés
katholikus
[...]
